{
    "\u0000": 0,
    "\u0001": 1,
    "\u0002": 2,
    "\u0003": 3,
    "\u0004": 4,
    "\u0005": 5,
    "\u0006": 6,
    "\u0007": 7,
    "\b": 8,
    "\t": 9,
    "Ċ": 10,
    "\u000b": 11,
    "\f": 12,
    "\r": 13,
    "\u000e": 14,
    "\u000f": 15,
    "\u0010": 16,
    "\u0011": 17,
    "\u0012": 18,
    "\u0013": 19,
    "\u0014": 20,
    "\u0015": 21,
    "\u0016": 22,
    "\u0017": 23,
    "\u0018": 24,
    "\u0019": 25,
    "\u001a": 26,
    "\u001b": 27,
    "\u001c": 28,
    "\u001d": 29,
    "\u001e": 30,
    "\u001f": 31,
    "Ġ": 32,
    "!": 33,
    "\"": 34,
    "#": 35,
    "$": 36,
    "%": 37,
    "&": 38,
    "'": 39,
    "(": 40,
    ")": 41,
    "*": 42,
    "+": 43,
    ",": 44,
    "-": 45,
    ".": 46,
    "/": 47,
    "0": 48,
    "1": 49,
    "2": 50,
    "3": 51,
    "4": 52,
    "5": 53,
    "6": 54,
    "7": 55,
    "8": 56,
    "9": 57,
    ":": 58,
    ";": 59,
    "<": 60,
    "=": 61,
    ">": 62,
    "?": 63,
    "@": 64,
    "A": 65,
    "B": 66,
    "C": 67,
    "D": 68,
    "E": 69,
    "F": 70,
    "G": 71,
    "H": 72,
    "I": 73,
    "J": 74,
    "K": 75,
    "L": 76,
    "M": 77,
    "N": 78,
    "O": 79,
    "P": 80,
    "Q": 81,
    "R": 82,
    "S": 83,
    "T": 84,
    "U": 85,
    "V": 86,
    "W": 87,
    "X": 88,
    "Y": 89,
    "Z": 90,
    "[": 91,
    "\\": 92,
    "]": 93,
    "^": 94,
    "_": 95,
    "`": 96,
    "a": 97,
    "b": 98,
    "c": 99,
    "d": 100,
    "e": 101,
    "f": 102,
    "g": 103,
    "h": 104,
    "i": 105,
    "j": 106,
    "k": 107,
    "l": 108,
    "m": 109,
    "n": 110,
    "o": 111,
    "p": 112,
    "q": 113,
    "r": 114,
    "s": 115,
    "t": 116,
    "u": 117,
    "v": 118,
    "w": 119,
    "x": 120,
    "y": 121,
    "z": 122,
    "{": 123,
    "|": 124,
    "}": 125,
    "~": 126,
    "": 127,
    "<0x80>": 128,
    "<0x81>": 129,
    "<0x82>": 130,
    "<0x83>": 131,
    "<0x84>": 132,
    "<0x85>": 133,
    "<0x86>": 134,
    "<0x87>": 135,
    "<0x88>": 136,
    "<0x89>": 137,
    "<0x8a>": 138,
    "<0x8b>": 139,
    "<0x8c>": 140,
    "<0x8d>": 141,
    "<0x8e>": 142,
    "<0x8f>": 143,
    "<0x90>": 144,
    "<0x91>": 145,
    "<0x92>": 146,
    "<0x93>": 147,
    "<0x94>": 148,
    "<0x95>": 149,
    "<0x96>": 150,
    "<0x97>": 151,
    "<0x98>": 152,
    "<0x99>": 153,
    "<0x9a>": 154,
    "<0x9b>": 155,
    "<0x9c>": 156,
    "<0x9d>": 157,
    "<0x9e>": 158,
    "<0x9f>": 159,
    "<0xa0>": 160,
    "<0xa1>": 161,
    "<0xa2>": 162,
    "<0xa3>": 163,
    "<0xa4>": 164,
    "<0xa5>": 165,
    "<0xa6>": 166,
    "<0xa7>": 167,
    "<0xa8>": 168,
    "<0xa9>": 169,
    "<0xaa>": 170,
    "<0xab>": 171,
    "<0xac>": 172,
    "<0xad>": 173,
    "<0xae>": 174,
    "<0xaf>": 175,
    "<0xb0>": 176,
    "<0xb1>": 177,
    "<0xb2>": 178,
    "<0xb3>": 179,
    "<0xb4>": 180,
    "<0xb5>": 181,
    "<0xb6>": 182,
    "<0xb7>": 183,
    "<0xb8>": 184,
    "<0xb9>": 185,
    "<0xba>": 186,
    "<0xbb>": 187,
    "<0xbc>": 188,
    "<0xbd>": 189,
    "<0xbe>": 190,
    "<0xbf>": 191,
    "<0xc0>": 192,
    "<0xc1>": 193,
    "<0xc2>": 194,
    "<0xc3>": 195,
    "<0xc4>": 196,
    "<0xc5>": 197,
    "<0xc6>": 198,
    "<0xc7>": 199,
    "<0xc8>": 200,
    "<0xc9>": 201,
    "<0xca>": 202,
    "<0xcb>": 203,
    "<0xcc>": 204,
    "<0xcd>": 205,
    "<0xce>": 206,
    "<0xcf>": 207,
    "<0xd0>": 208,
    "<0xd1>": 209,
    "<0xd2>": 210,
    "<0xd3>": 211,
    "<0xd4>": 212,
    "<0xd5>": 213,
    "<0xd6>": 214,
    "<0xd7>": 215,
    "<0xd8>": 216,
    "<0xd9>": 217,
    "<0xda>": 218,
    "<0xdb>": 219,
    "<0xdc>": 220,
    "<0xdd>": 221,
    "<0xde>": 222,
    "<0xdf>": 223,
    "<0xe0>": 224,
    "<0xe1>": 225,
    "<0xe2>": 226,
    "<0xe3>": 227,
    "<0xe4>": 228,
    "<0xe5>": 229,
    "<0xe6>": 230,
    "<0xe7>": 231,
    "<0xe8>": 232,
    "<0xe9>": 233,
    "<0xea>": 234,
    "<0xeb>": 235,
    "<0xec>": 236,
    "<0xed>": 237,
    "<0xee>": 238,
    "<0xef>": 239,
    "<0xf0>": 240,
    "<0xf1>": 241,
    "<0xf2>": 242,
    "<0xf3>": 243,
    "<0xf4>": 244,
    "<0xf5>": 245,
    "<0xf6>": 246,
    "<0xf7>": 247,
    "<0xf8>": 248,
    "<0xf9>": 249,
    "<0xfa>": 250,
    "<0xfb>": 251,
    "<0xfc>": 252,
    "<0xfd>": 253,
    "<0xfe>": 254,
    "<0xff>": 255,
    "Ġt": 256,
    "he": 257,
    "Ġa": 258,
    "ou": 259,
    "Ġs": 260,
    "Ġm": 261,
    "in": 262,
    "Ġw": 263,
    "re": 264,
    "ha": 265,
    "nd": 266,
    "Ġthe": 267,
    "Ġb": 268,
    "is": 269,
    "or": 270,
    "Ġf": 271,
    "er": 272,
    "ll": 273,
    "it": 274,
    "on": 275,
    "Ġd": 276,
    "Ġc": 277,
    "es": 278,
    "en": 279,
    "Ġn": 280,
    "Ġl": 281,
    "Ġy": 282,
    "Ġth": 283,
    "ar": 284,
    "Ġh": 285,
    "Ġo": 286,
    "Ġto": 287,
    "Ġyou": 288,
    "Ġp": 289,
    "hat": 290,
    "ĠI": 291,
    "Ġhe": 292,
    "ve": 293,
    "ot": 294,
    "st": 295,
    "Ġand": 296,
    "ow": 297,
    "ing": 298,
    "an": 299,
    "Ġof": 300,
    "om": 301,
    "Ġg": 302,
    "at": 303,
    "Ġbe": 304,
    "se": 305,
    "Ġmy": 306,
    "Ġin": 307,
    "ce": 308,
    "Ġha": 309,
    "le": 310,
    "ay": 311,
    "ld": 312,
    "ir": 313,
    "et": 314,
    "ed": 315,
    "ut": 316,
    "Ġme": 317,
    "im": 318,
    "ith": 319,
    "'s": 320,
    "Ġnot": 321,
    "ch": 322,
    "Ġthat": 323,
    "Ġis": 324,
    "gh": 325,
    "And": 326,
    "Ġfor": 327,
    "ke": 328,
    "Ġu": 329,
    "our": 330,
    "Ġwe": 331,
    "oo": 332,
    "ill": 333,
    "Ġe": 334,
    "her": 335,
    "Ġwith": 336,
    "ent": 337,
    "Ġit": 338,
    "Ġyour": 339,
    "ad": 340,
    "ri": 341,
    "Ġthou": 342,
    "Ġst": 343,
    "'d": 344,
    "Ġk": 345,
    "ome": 346,
    "Ġhis": 347,
    "ght": 348,
    "EN": 349,
    "ord": 350,
    "id": 351,
    "as": 352,
    "The": 353,
    "Ġre": 354,
    "Ġhave": 355,
    "IN": 356,
    "ly": 357,
    "ra": 358,
    "Ġli": 359,
    "Ġhim": 360,
    "ur": 361,
    "Ġthis": 362,
    "al": 363,
    "IO": 364,
    "Ġso": 365,
    "Ġas": 366,
    "Ġde": 367,
    "Ġon": 368,
    "ore": 369,
    "ro": 370,
    "AR": 371,
    "hi": 372,
    "ould": 373,
    "ood": 374,
    "ck": 375,
    "ain": 376,
    "ver": 377,
    "est": 378,
    "Ġthy": 379,
    "Ġsha": 380,
    "ess": 381,
    "ea": 382,
    "Ġdo": 383,
    "Ġwill": 384,
    "am": 385,
    "Ġno": 386,
    "Ġbut": 387,
    "us": 388,
    "and": 389,
    "US": 390,
    "if": 391,
    "Ġse": 392,
    "ge": 393,
    "Th": 394,
    "Ġall": 395,
    "Ġsu": 396,
    "ake": 397,
    "To": 398,
    "Ġher": 399,
    "ru": 400,
    "ion": 401,
    "th": 402,
    "Ġan": 403,
    "ter": 404,
    "ard": 405,
    "Ġlo": 406,
    "han": 407,
    "ell": 408,
    "ear": 409,
    "Ġsp": 410,
    "Ġthee": 411,
    "Ġour": 412,
    "Ġfa": 413,
    "Ġshall": 414,
    "Ġby": 415,
    "UC": 416,
    "il": 417,
    "Ġare": 418,
    "ING": 419,
    "ĠC": 420,
    "Ġne": 421,
    "rom": 422,
    "ho": 423,
    "Ġkn": 424,
    "AN": 425,
    "ĠR": 426,
    "That": 427,
    "Ġv": 428,
    "ER": 429,
    "OR": 430,
    "ast": 431,
    "ct": 432,
    "ous": 433,
    "Ġwhat": 434,
    "ight": 435,
    "Ġsh": 436,
    "ul": 437,
    "Ġ'": 438,
    "ET": 439,
    "ant": 440,
    "ES": 441,
    "Ġup": 442,
    "sel": 443,
    "qu": 444,
    "But": 445,
    "art": 446,
    "Ġgood": 447,
    "row": 448,
    "ine": 449,
    "ath": 450,
    "Ġlord": 451,
    "hich": 452,
    "nt": 453,
    "ust": 454,
    "'ll": 455,
    "Ġ\u0000": 456,
    "one": 457,
    "Ġpr": 458,
    "Ġcom": 459,
    "Ġat": 460,
    "Ġman": 461,
    "ĠM": 462,
    "What": 463,
    "Ġwhe": 464,
    "ĠE": 465,
    "KING": 466,
    "Ġam": 467,
    "end": 468,
    "ic": 469,
    "Ġcon": 470,
    "ble": 471,
    "ry": 472,
    "ong": 473,
    "ie": 474,
    "Ġbl": 475,
    "ive": 476,
    "Ġfrom": 477,
    "ven": 478,
    "ĠG": 479,
    "Ġshe": 480,
    "For": 481,
    "em": 482,
    "Ġgo": 483,
    "are": 484,
    "Ġmore": 485,
    "IC": 486,
    "out": 487,
    "Ġthem": 488,
    "au": 489,
    "Ġwas": 490,
    "oth": 491,
    "other": 492,
    "He": 493,
    "Ġsir": 494,
    "ol": 495,
    "Ġnow": 496,
    "ĠL": 497,
    "Ġhat": 498,
    "ost": 499,
    "Ġif": 500,
    "LO": 501,
    "ind": 502,
    "Ġthere": 503,
    "Ġwould": 504,
    "Ġknow": 505,
    "Ġcan": 506,
    "ers": 507,
    "IUS": 508,
    "ep": 509,
    "self": 510,
    "ARD": 511,
    "ather": 512,
    "fe": 513,
    "res": 514,
    "ond": 515,
    "ate": 516,
    "Ġsay": 517,
    "Ġhere": 518,
    "Ġlove": 519,
    "Ġsw": 520,
    "Ġtheir": 521,
    "Ġbr": 522,
    "pp": 523,
    "Ġor": 524,
    "--": 525,
    "ĠS": 526,
    "all": 527,
    "Ġthan": 528,
    "Ġthen": 529,
    "Ġking": 530,
    "Ġus": 531,
    "ĠO": 532,
    "ĠB": 533,
    "Ġthey": 534,
    "Ġar": 535,
    "od": 536,
    "My": 537,
    "Ġlet": 538,
    "Ġun": 539,
    "ig": 540,
    "Ġwor": 541,
    "ure": 542,
    "ink": 543,
    "ĠH": 544,
    "ort": 545,
    "hy": 546,
    "ĠV": 547,
    "ame": 548,
    "fore": 549,
    "As": 550,
    "Ġmay": 551,
    "el": 552,
    "Ġcome": 553,
    "Ġqu": 554,
    "ook": 555,
    "Whe": 556,
    "ish": 557,
    "LI": 558,
    "Ġwell": 559,
    "KE": 560,
    "ves": 561,
    "Ġj": 562,
    "Ġone": 563,
    "Ġhath": 564,
    "irst": 565,
    "You": 566,
    "Ġmake": 567,
    "reat": 568,
    "ak": 569,
    "gain": 570,
    "Ġmust": 571,
    "ound": 572,
    "ng": 573,
    "Ġgra": 574,
    "Ġwere": 575,
    "Ġho": 576,
    "ci": 577,
    "Ġsee": 578,
    "Ġlike": 579,
    "ue": 580,
    "eak": 581,
    "TIO": 582,
    "Ġshould": 583,
    "ity": 584,
    "Ġpro": 585,
    "ĠP": 586,
    "Ġsa": 587,
    "Ġmad": 588,
    "um": 589,
    "Ġpl": 590,
    "Ġfather": 591,
    "RO": 592,
    "AU": 593,
    "Ġhad": 594,
    "Ġdid": 595,
    "pe": 596,
    "ime": 597,
    "Ġupon": 598,
    "ice": 599,
    "ON": 600,
    "Ġtoo": 601,
    "ence": 602,
    "ĠW": 603,
    "ist": 604,
    "ward": 605,
    "Ġdeath": 606,
    "own": 607,
    "Ġen": 608,
    "man": 609,
    "ose": 610,
    "un": 611,
    "IS": 612,
    "ful": 613,
    "nce": 614,
    "Ġr": 615,
    "Ġpo": 616,
    "Ġspeak": 617,
    "de": 618,
    "entle": 619,
    "io": 620,
    "Ġout": 621,
    "pt": 622,
    "Ġwhich": 623,
    "ICH": 624,
    "Ġfri": 625,
    "OL": 626,
    "DU": 627,
    "Ġagain": 628,
    "DUKE": 629,
    "Ġhow": 630,
    "EL": 631,
    "ĠA": 632,
    "ick": 633,
    "Ġtru": 634,
    "Ġheart": 635,
    "Ġhand": 636,
    "Ġyet": 637,
    "CA": 638,
    "Thou": 639,
    "very": 640,
    "ICHARD": 641,
    "ENTIO": 642,
    "With": 643,
    "ign": 644,
    "ance": 645,
    "Ġsome": 646,
    "Ġwho": 647,
    "Which": 648,
    "If": 649,
    "Ġwhen": 650,
    "ies": 651,
    "Ġmar": 652,
    "ire": 653,
    "Ġhon": 654,
    "Ġmine": 655,
    "har": 656,
    "orn": 657,
    "Ġoff": 658,
    "ince": 659,
    "INC": 660,
    "ĠY": 661,
    "In": 662,
    "ack": 663,
    "Ġson": 664,
    "Ġdis": 665,
    "Ġal": 666,
    "'t": 667,
    "We": 668,
    "wn": 669,
    "Ġhea": 670,
    "uch": 671,
    "oy": 672,
    "First": 673,
    "Ġhear": 674,
    "Ġtime": 675,
    "ec": 676,
    "AB": 677,
    "Ġsuch": 678,
    "ness": 679,
    "LA": 680,
    "Ġbrother": 681,
    "Of": 682,
    "Ġblood": 683,
    "ither": 684,
    "Ġab": 685,
    "UE": 686,
    "Ġthese": 687,
    "Why": 688,
    "No": 689,
    "Ġgive": 690,
    "Ġfo": 691,
    "Ġday": 692,
    "ĠII": 693,
    "Ġear": 694,
    "ĠRICHARD": 695,
    "ise": 696,
    "Ġex": 697,
    "Ġro": 698,
    "This": 699,
    "TER": 700,
    "Ġlife": 701,
    "eet": 702,
    "Ġtell": 703,
    "So": 704,
    "UCH": 705,
    "Ġthink": 706,
    "Ġlook": 707,
    "oul": 708,
    "Ġey": 709,
    "Ġword": 710,
    "Ġwhere": 711,
    "ag": 712,
    "een": 713,
    "ther": 714,
    "age": 715,
    "Ġtake": 716,
    "UCES": 717,
    "GLO": 718,
    "Ġfriend": 719,
    "UCESTER": 720,
    "GLOUCESTER": 721,
    "ef": 722,
    "erv": 723,
    "ady": 724,
    "rown": 725,
    "Ġdes": 726,
    "ings": 727,
    "ave": 728,
    "not": 729,
    "urse": 730,
    "Ġgentle": 731,
    "RY": 732,
    "How": 733,
    "Ġri": 734,
    "ase": 735,
    "way": 736,
    "INCENTIO": 737,
    "UEEN": 738,
    "QUEEN": 739,
    "Ġlea": 740,
    "tis": 741,
    "ĠOF": 742,
    "Ġart": 743,
    "Ġmost": 744,
    "Where": 745,
    "Ġhonour": 746,
    "LAN": 747,
    "Ġmuch": 748,
    "Ġsl": 749,
    "Ġwar": 750,
    "Ġfl": 751,
    "urn": 752,
    "Ġmade": 753,
    "ment": 754,
    "Now": 755,
    "Ġhast": 756,
    "Ġtw": 757,
    "Ġfear": 758,
    "ĠT": 759,
    "Ġbet": 760,
    "aught": 761,
    "ENRY": 762,
    "Is": 763,
    "ff": 764,
    "LE": 765,
    "ber": 766,
    "ĠGod": 767,
    "ved": 768,
    "ough": 769,
    "Ġbre": 770,
    "cc": 771,
    "ower": 772,
    "Ġnever": 773,
    "ĠVINCENTIO": 774,
    "Be": 775,
    "ap": 776,
    "ĠK": 777,
    "igh": 778,
    "Ġfair": 779,
    "Ġgreat": 780,
    "ee": 781,
    "itt": 782,
    "Ġcou": 783,
    "Ġmen": 784,
    "Ġnew": 785,
    "Who": 786,
    "ĠRome": 787,
    "aster": 788,
    "orrow": 789,
    "uke": 790,
    "iz": 791,
    "old": 792,
    "ORK": 793,
    "ation": 794,
    "Ġpart": 795,
    "INIUS": 796,
    "ss": 797,
    "ree": 798,
    "ide": 799,
    "Or": 800,
    "Ġcall": 801,
    "ple": 802,
    "Ġany": 803,
    "Ġheaven": 804,
    "Ġad": 805,
    "Ġcomm": 806,
    "It": 807,
    "Your": 808,
    "Ġstand": 809,
    "Ġtrue": 810,
    "Ġcannot": 811,
    "DW": 812,
    "Ġbeen": 813,
    "ears": 814,
    "Ġname": 815,
    "DWARD": 816,
    "Ġcl": 817,
    "Ġpre": 818,
    "Ġsweet": 819,
    "Ġpray": 820,
    "Ġdoth": 821,
    ",--": 822,
    "hing": 823,
    "UM": 824,
    "PET": 825,
    "Ġnoble": 826,
    "TH": 827,
    "Ġple": 828,
    "MEN": 829,
    "ass": 830,
    "LUC": 831,
    "Ġown": 832,
    "ĠD": 833,
    "Ġper": 834,
    "ouse": 835,
    "Ay": 836,
    "ull": 837,
    "Come": 838,
    "There": 839,
    "Ġwr": 840,
    "ife": 841,
    "Ġdone": 842,
    "aw": 843,
    "Ġtr": 844,
    "Ġway": 845,
    "Ġhead": 846,
    "Ġother": 847,
    "Ġmean": 848,
    "li": 849,
    "red": 850,
    "When": 851,
    "Ġnor": 852,
    "dward": 853,
    "ME": 854,
    "Ġsc": 855,
    "Ġpres": 856,
    "Ġsoul": 857,
    "MEO": 858,
    "ROMEO": 859,
    "ving": 860,
    "Ġbear": 861,
    "ace": 862,
    "aint": 863,
    "ĠCl": 864,
    "Ġnight": 865,
    "ENIUS": 866,
    "Ġworld": 867,
    "MENENIUS": 868,
    "ger": 869,
    "ause": 870,
    "Ġbefore": 871,
    "Ġboth": 872,
    "Ġqueen": 873,
    "per": 874,
    "Then": 875,
    "aughter": 876,
    "Ġmo": 877,
    "Ġchi": 878,
    "Here": 879,
    "UCHIO": 880,
    "PETR": 881,
    "PETRUCHIO": 882,
    "OM": 883,
    "Ġdead": 884,
    "able": 885,
    "Ġvery": 886,
    "TES": 887,
    "to": 888,
    "By": 889,
    "ite": 890,
    "Ġra": 891,
    "the": 892,
    "Ġke": 893,
    "Than": 894,
    "ab": 895,
    "ĠF": 896,
    "les": 897,
    "Ġdown": 898,
    "Ġcont": 899,
    "Ġmyself": 900,
    "Ġapp": 901,
    "HA": 902,
    "GR": 903,
    "Ġwh": 904,
    "Ġrem": 905,
    "ĠLord": 906,
    "Ġarm": 907,
    "Ġthus": 908,
    "ilt": 909,
    "ORIO": 910,
    "LANUS": 911,
    "ORIOLANUS": 912,
    "econd": 913,
    "Ġleave": 914,
    "CORIOLANUS": 915,
    "Second": 916,
    "lo": 917,
    "Ġbeing": 918,
    "ction": 919,
    "ĠEdward": 920,
    "sw": 921,
    "Nor": 922,
    "Ġunt": 923,
    "ress": 924,
    "Ġgrace": 925,
    "Ġbeg": 926,
    "less": 927,
    "Ġeyes": 928,
    "BA": 929,
    "led": 930,
    "land": 931,
    "Ġmother": 932,
    "Ġma": 933,
    "ran": 934,
    "Ġold": 935,
    "Ġim": 936,
    "INA": 937,
    "ĠEDWARD": 938,
    "izen": 939,
    "itizen": 940,
    "ps": 941,
    "Ġever": 942,
    "ĠMar": 943,
    "Ġlong": 944,
    "Ġlive": 945,
    "Ġchild": 946,
    "me": 947,
    "Let": 948,
    "Ġwife": 949,
    "She": 950,
    "Ġrep": 951,
    "ĠIII": 952,
    "Ġaway": 953,
    "Ġwom": 954,
    "Ġpoor": 955,
    "Ġfriends": 956,
    "Ġaf": 957,
    "for": 958,
    "come": 959,
    "Ġmight": 960,
    "wick": 961,
    "nder": 962,
    "Ġstay": 963,
    "eace": 964,
    "ks": 965,
    "oud": 966,
    "atch": 967,
    "Ġdie": 968,
    "ĠJ": 969,
    "Ġru": 970,
    "Ġcomes": 971,
    "Ġcons": 972,
    "arwick": 973,
    "ows": 974,
    "Ġmany": 975,
    "Ġcrown": 976,
    "Ġpe": 977,
    "Tis": 978,
    "hall": 979,
    "ison": 980,
    "Ġle": 981,
    "ĠYORK": 982,
    "iss": 983,
    "Ġhar": 984,
    "Ġthought": 985,
    "Ġrest": 986,
    "uck": 987,
    "ABEL": 988,
    "Ġhouse": 989,
    "ABELLA": 990,
    "ISABELLA": 991,
    "erc": 992,
    "ian": 993,
    "Ġcour": 994,
    "Ġent": 995,
    "Ġlie": 996,
    "RAN": 997,
    "che": 998,
    "Ġset": 999,
    "JU": 1000,
    "ors": 1001,
    "atter": 1002,
    "well": 1003,
    "LIET": 1004,
    "LEON": 1005,
    "ĠWarwick": 1006,
    "JULIET": 1007,
    "LEONTES": 1008,
    "int": 1009,
    "Nay": 1010,
    "Ġgone": 1011,
    "Ġbetter": 1012,
    "ittle": 1013,
    "Ġdaughter": 1014,
    "MI": 1015,
    "ought": 1016,
    "rant": 1017,
    "Ġprince": 1018,
    "DY": 1019,
    "His": 1020,
    "Ġtong": 1021,
    "Ġnothing": 1022,
    "CE": 1023,
    "VOL": 1024,
    "LADY": 1025,
    "ENCE": 1026,
    "BR": 1027,
    "TA": 1028,
    "ied": 1029,
    "Ġkeep": 1030,
    "Ġwit": 1031,
    "os": 1032,
    "Go": 1033,
    "ces": 1034,
    "Ġsle": 1035,
    "Ġres": 1036,
    "Well": 1037,
    "ious": 1038,
    "hard": 1039,
    "Ġnews": 1040,
    "ft": 1041,
    "ret": 1042,
    "ier": 1043,
    "ont": 1044,
    "ool": 1045,
    "Ġtri": 1046,
    "Ġgri": 1047,
    "SIC": 1048,
    "Ġthose": 1049,
    "une": 1050,
    "SICINIUS": 1051,
    "Not": 1052,
    "Ġlords": 1053,
    "Ġagainst": 1054,
    "Ġlittle": 1055,
    "Ġhour": 1056,
    "ford": 1057,
    "Ġbest": 1058,
    "ardon": 1059,
    "akes": 1060,
    "Ġhence": 1061,
    "sed": 1062,
    "lse": 1063,
    "Ġface": 1064,
    "ult": 1065,
    "Ġfoll": 1066,
    "Ġacc": 1067,
    "On": 1068,
    "ud": 1069,
    "ew": 1070,
    "ark": 1071,
    "Ġend": 1072,
    "Ġyoung": 1073,
    "ork": 1074,
    "Ġthing": 1075,
    "Ġstill": 1076,
    "ield": 1077,
    "Ġkind": 1078,
    "ST": 1079,
    "Ġpri": 1080,
    "Ġpur": 1081,
    "alk": 1082,
    "Thy": 1083,
    "Ġcomp": 1084,
    "LUCIO": 1085,
    "ins": 1086,
    "ert": 1087,
    "ĠIV": 1088,
    "ale": 1089,
    "Ġput": 1090,
    "Ġtwo": 1091,
    "Ġpower": 1092,
    "ichard": 1093,
    "Ġcha": 1094,
    "Ġhimself": 1095,
    "cl": 1096,
    "Ġgu": 1097,
    "ried": 1098,
    "Ġdear": 1099,
    "Pro": 1100,
    "iness": 1101,
    "Ġfirst": 1102,
    "cious": 1103,
    "Ġpeace": 1104,
    "Ġelse": 1105,
    "Sir": 1106,
    "ason": 1107,
    "hile": 1108,
    "Ġsub": 1109,
    "ail": 1110,
    "Ġunto": 1111,
    "Ġsm": 1112,
    "ile": 1113,
    "ray": 1114,
    "uty": 1115,
    "Ġtill": 1116,
    "RI": 1117,
    "Ġdre": 1118,
    "Ġco": 1119,
    "Ġbid": 1120,
    "Ġtra": 1121,
    "Ġhus": 1122,
    "ect": 1123,
    "ETH": 1124,
    "Ġtherefore": 1125,
    "LIZ": 1126,
    "Ġback": 1127,
    "Ġearth": 1128,
    "Ġwords": 1129,
    "Ġcount": 1130,
    "ABETH": 1131,
    "ĠELIZ": 1132,
    "ĠELIZABETH": 1133,
    "men": 1134,
    "yal": 1135,
    "Ġcould": 1136,
    "ius": 1137,
    "band": 1138,
    "Ġfind": 1139,
    "Have": 1140,
    "ople": 1141,
    "Ġtongue": 1142,
    "ty": 1143,
    "orse": 1144,
    "Ġneed": 1145,
    "Ġthine": 1146,
    "Ġlady": 1147,
    "ĠYork": 1148,
    "tw": 1149,
    "ren": 1150,
    "get": 1151,
    "Ġforth": 1152,
    "Ġfell": 1153,
    "enry": 1154,
    "Ġhope": 1155,
    "HENRY": 1156,
    "Ġhigh": 1157,
    "lp": 1158,
    "St": 1159,
    "vere": 1160,
    "eth": 1161,
    "Ġhome": 1162,
    "MER": 1163,
    "Ġseem": 1164,
    "eech": 1165,
    "ĠRomeo": 1166,
    "Ġhusband": 1167,
    "CL": 1168,
    "Ġright": 1169,
    "Ġduke": 1170,
    "GE": 1171,
    "rer": 1172,
    "Ġban": 1173,
    "uth": 1174,
    "Ġthough": 1175,
    "WAR": 1176,
    "ĠWhat": 1177,
    "ICK": 1178,
    "fort": 1179,
    "ĠVI": 1180,
    "WARW": 1181,
    "WARWICK": 1182,
    "UT": 1183,
    "ix": 1184,
    "Ġche": 1185,
    "ach": 1186,
    "Ġbra": 1187,
    "hip": 1188,
    "ister": 1189,
    "Ġmind": 1190,
    "Ġchar": 1191,
    "ĠHENRY": 1192,
    "Ġpeople": 1193,
    "ds": 1194,
    "ged": 1195,
    "Nurse": 1196,
    "ĠCitizen": 1197,
    "Ġtre": 1198,
    "They": 1199,
    "HAM": 1200,
    "ĠHenry": 1201,
    "PU": 1202,
    "eed": 1203,
    "Ġbri": 1204,
    "Ġchan": 1205,
    "IAN": 1206,
    "Ġshow": 1207,
    "LET": 1208,
    "Ġconf": 1209,
    "Ġhands": 1210,
    "Ġlaw": 1211,
    "ĠRichard": 1212,
    "PULET": 1213,
    "be": 1214,
    "EY": 1215,
    "Ġgl": 1216,
    "Ġonce": 1217,
    "Ġwhy": 1218,
    "Ġsaid": 1219,
    "Ġmaster": 1220,
    "Ġcause": 1221,
    "Ġimp": 1222,
    "MIO": 1223,
    "Good": 1224,
    "ousin": 1225,
    "Ġnone": 1226,
    "Ġbod": 1227,
    "Ġjoy": 1228,
    "ervant": 1229,
    "Shall": 1230,
    "bt": 1231,
    "All": 1232,
    "Ġfort": 1233,
    "Ġbring": 1234,
    "Ġdou": 1235,
    "ates": 1236,
    "Yet": 1237,
    "UCKING": 1238,
    "Ġevery": 1239,
    "UTUS": 1240,
    "UCKINGHAM": 1241,
    "BRUTUS": 1242,
    "ird": 1243,
    "iet": 1244,
    "Ġlight": 1245,
    "INGB": 1246,
    "From": 1247,
    "ESS": 1248,
    "ROKE": 1249,
    "Ġmist": 1250,
    "ĠBOL": 1251,
    "Ġpass": 1252,
    "RANIO": 1253,
    "BUCKINGHAM": 1254,
    "INGBROKE": 1255,
    "TRANIO": 1256,
    "ĠBOLINGBROKE": 1257,
    "lt": 1258,
    "Do": 1259,
    "Ġwo": 1260,
    "Ġthr": 1261,
    "Ġnat": 1262,
    "Will": 1263,
    "vost": 1264,
    "swer": 1265,
    "Ġroyal": 1266,
    "its": 1267,
    "ary": 1268,
    "cle": 1269,
    "PER": 1270,
    "ĠMAR": 1271,
    "Ġcame": 1272,
    "TIS": 1273,
    "Ġwhose": 1274,
    "Ġtears": 1275,
    "Ġplease": 1276,
    "lf": 1277,
    "vy": 1278,
    "ory": 1279,
    "roke": 1280,
    "ĠAn": 1281,
    "Ġpardon": 1282,
    "NE": 1283,
    "Cl": 1284,
    "Ġbes": 1285,
    "Ġdev": 1286,
    "GAR": 1287,
    "Ġheard": 1288,
    "arry": 1289,
    "Ġhapp": 1290,
    "Ġjust": 1291,
    "pose": 1292,
    "Ġboy": 1293,
    "Ġfull": 1294,
    "Ġwrong": 1295,
    "Ġpresent": 1296,
    "GARET": 1297,
    "ĠMARGARET": 1298,
    "Ġmis": 1299,
    "ens": 1300,
    "Ġere": 1301,
    "Ġland": 1302,
    "Ġlast": 1303,
    "Ġstate": 1304,
    "eel": 1305,
    "Ġsince": 1306,
    "ATH": 1307,
    "Ġplace": 1308,
    "MIL": 1309,
    "bl": 1310,
    "Ġmeet": 1311,
    "Ġkill": 1312,
    "ock": 1313,
    "sand": 1314,
    "Ġafter": 1315,
    "Ġunder": 1316,
    "cent": 1317,
    "esty": 1318,
    "ition": 1319,
    "ORD": 1320,
    "HOR": 1321,
    "Ġcare": 1322,
    "Ġhold": 1323,
    "Ġsorrow": 1324,
    "GRE": 1325,
    "GELO": 1326,
    "Ġthousand": 1327,
    "ANGELO": 1328,
    "CU": 1329,
    "Our": 1330,
    "arence": 1331,
    "Ġwhom": 1332,
    "ARINA": 1333,
    "Ġfollow": 1334,
    "Ġhelp": 1335,
    "Ġfar": 1336,
    "day": 1337,
    "irt": 1338,
    "Ġless": 1339,
    "ceive": 1340,
    "Ġweep": 1341,
    "selves": 1342,
    "cius": 1343,
    "Ġenem": 1344,
    "Ġhither": 1345,
    "Ġabout": 1346,
    "Ġeye": 1347,
    "Ġshame": 1348,
    "KATH": 1349,
    "KATHARINA": 1350,
    "\u0000:": 1351,
    "ons": 1352,
    "Ġpat": 1353,
    "Ġfal": 1354,
    "Ġsun": 1355,
    "iol": 1356,
    "urde": 1357,
    "Ġfool": 1358,
    "Ġanswer": 1359,
    "\u0000:\u0000": 1360,
    "Ġch": 1361,
    "air": 1362,
    "Ġfall": 1363,
    "asure": 1364,
    "Ġmaid": 1365,
    "Un": 1366,
    "Up": 1367,
    "Ġbus": 1368,
    "LUS": 1369,
    "thy": 1370,
    "ount": 1371,
    "Ġhate": 1372,
    "ESCA": 1373,
    "Ġgentleman": 1374,
    "ĠKing": 1375,
    "Ġgrief": 1376,
    "Ġgracious": 1377,
    "Ġcousin": 1378,
    "ESCALUS": 1379,
    "An": 1380,
    "ove": 1381,
    "imes": 1382,
    "Ġstri": 1383,
    "Ġinto": 1384,
    "Ġmakes": 1385,
    "ject": 1386,
    "iv": 1387,
    "ild": 1388,
    "Ġstre": 1389,
    "Hath": 1390,
    "ĠEng": 1391,
    "Ġwoman": 1392,
    "alt": 1393,
    "Ġdost": 1394,
    "ices": 1395,
    "Ġhum": 1396,
    "DUCH": 1397,
    "Ġturn": 1398,
    "Ġcoun": 1399,
    "ĠDuke": 1400,
    "Ġcourt": 1401,
    "Ġsleep": 1402,
    "Ġcomfort": 1403,
    "urderer": 1404,
    "DUCHESS": 1405,
    "itor": 1406,
    "Ġbel": 1407,
    "pher": 1408,
    "Lord": 1409,
    "Ġover": 1410,
    "Ġtalk": 1411,
    "Ġbody": 1412,
    "Ġbu": 1413,
    "Ġgr": 1414,
    "ute": 1415,
    "deed": 1416,
    "morrow": 1417,
    "Ġwilt": 1418,
    "gelo": 1419,
    "ĠMarcius": 1420,
    "Ġi": 1421,
    "IA": 1422,
    "Ġbed": 1423,
    "ised": 1424,
    "Ġatt": 1425,
    "ieve": 1426,
    "Ġprove": 1427,
    "Ġplay": 1428,
    "ience": 1429,
    "Ġfault": 1430,
    "MILLO": 1431,
    "ĠClarence": 1432,
    "CAMILLO": 1433,
    "ere": 1434,
    "ans": 1435,
    "Ġinst": 1436,
    "omet": 1437,
    "Ġwel": 1438,
    "ade": 1439,
    "Ġret": 1440,
    "ily": 1441,
    "Ġdra": 1442,
    "Ġdeed": 1443,
    "Ġthank": 1444,
    "God": 1445,
    "Ġsound": 1446,
    "Ġbo": 1447,
    "Ġser": 1448,
    "ENS": 1449,
    "illain": 1450,
    "hold": 1451,
    "Ġvo": 1452,
    "Ġfight": 1453,
    "Ġsword": 1454,
    "HORT": 1455,
    "Ġfalse": 1456,
    "Ġindeed": 1457,
    "ĠAngelo": 1458,
    "HORTENS": 1459,
    "Sh": 1460,
    "Ġuse": 1461,
    "Ġeven": 1462,
    "Ġanother": 1463,
    "Ġgrave": 1464,
    "Ġadv": 1465,
    "RIAR": 1466,
    "Ġfellow": 1467,
    "Ġsovere": 1468,
    "Provost": 1469,
    "Upon": 1470,
    "HORTENSIO": 1471,
    "FRIAR": 1472,
    ",'": 1473,
    "Ġhas": 1474,
    "Ġem": 1475,
    "Ġcur": 1476,
    "ury": 1477,
    "eal": 1478,
    "pect": 1479,
    "BAP": 1480,
    "Ġbanish": 1481,
    "Ġfortune": 1482,
    "TISTA": 1483,
    "BAPTISTA": 1484,
    "pl": 1485,
    "YC": 1486,
    "pen": 1487,
    "ouch": 1488,
    "Ġass": 1489,
    "Ġsend": 1490,
    "Ġwant": 1491,
    "Ġreven": 1492,
    "fect": 1493,
    "AUT": 1494,
    "Ġrather": 1495,
    "OMINIUS": 1496,
    "Ġprison": 1497,
    "Ġmerc": 1498,
    "Ġmatter": 1499,
    "Ġcountry": 1500,
    "Ġdoubt": 1501,
    "YCUS": 1502,
    "AUTOL": 1503,
    "COMINIUS": 1504,
    "AUTOLYCUS": 1505,
    ".'": 1506,
    "\u0000.": 1507,
    "Are": 1508,
    "Ġlies": 1509,
    "Ġonly": 1510,
    "More": 1511,
    "Even": 1512,
    "Ġwish": 1513,
    "Ġyears": 1514,
    "ARENCE": 1515,
    "Ġreason": 1516,
    "Ġtruth": 1517,
    "Third": 1518,
    "Ġvirt": 1519,
    "of": 1520,
    "ms": 1521,
    "ior": 1522,
    "any": 1523,
    "Ġdan": 1524,
    "Would": 1525,
    "ĠBut": 1526,
    "Ġpers": 1527,
    "rance": 1528,
    "Ġbreath": 1529,
    "Ġarms": 1530,
    "Ġdream": 1531,
    "pherd": 1532,
    "CLARENCE": 1533,
    "dd": 1534,
    "der": 1535,
    "ener": 1536,
    "Ġgi": 1537,
    "Ġsent": 1538,
    "BEN": 1539,
    "Ġstra": 1540,
    "MAR": 1541,
    "NOR": 1542,
    "Ġdisc": 1543,
    "VOLIO": 1544,
    "Ġshalt": 1545,
    "Clown": 1546,
    "Ġbusiness": 1547,
    "BENVOLIO": 1548,
    "Al": 1549,
    "by": 1550,
    "At": 1551,
    "hed": 1552,
    "Ġsen": 1553,
    "Ġprom": 1554,
    "Ġholy": 1555,
    "ROS": 1556,
    "erving": 1557,
    "Ġenough": 1558,
    "Ġcommand": 1559,
    "UMIO": 1560,
    "PERO": 1561,
    "PROS": 1562,
    "GRUMIO": 1563,
    "PROSPERO": 1564,
    "ia": 1565,
    "ken": 1566,
    "ars": 1567,
    "ator": 1568,
    "Ġbea": 1569,
    "Ġlay": 1570,
    "Ġcra": 1571,
    "Ġsold": 1572,
    "Ġsea": 1573,
    "Ġspir": 1574,
    "Ġfare": 1575,
    "Ġwind": 1576,
    "Ġswear": 1577,
    "Ġhang": 1578,
    "Ġpity": 1579,
    "Ġcontent": 1580,
    "Ġstran": 1581,
    "Ġproud": 1582,
    "CUTIO": 1583,
    "ĠMurderer": 1584,
    "MERCUTIO": 1585,
    "eter": 1586,
    "ike": 1587,
    "Ġdep": 1588,
    "Ġsec": 1589,
    "Ġdare": 1590,
    "Ġlives": 1591,
    "gainst": 1592,
    "ĠKate": 1593,
    "LUCENTIO": 1594,
    "Ġremem": 1595,
    "Ġnature": 1596,
    "Ġwelcome": 1597,
    "Ġvillain": 1598,
    "Tw": 1599,
    "ham": 1600,
    "com": 1601,
    "Ġgre": 1602,
    "Ġint": 1603,
    "Ġget": 1604,
    "Ġwithin": 1605,
    "ester": 1606,
    "ĠCome": 1607,
    "unt": 1608,
    "Ġtend": 1609,
    "Ġsaw": 1610,
    "Ġmadam": 1611,
    "LAND": 1612,
    "Ġfree": 1613,
    "OMP": 1614,
    "Ġkiss": 1615,
    "Ġgods": 1616,
    "Ġhappy": 1617,
    "Ġsovereign": 1618,
    "POMP": 1619,
    "hal": 1620,
    "vers": 1621,
    "Ġcity": 1622,
    "AUL": 1623,
    "apt": 1624,
    "Were": 1625,
    "Ġfoul": 1626,
    "Ġserv": 1627,
    "Ġsister": 1628,
    "Ġbeseech": 1629,
    "Ġsomet": 1630,
    "AULINA": 1631,
    "PAULINA": 1632,
    "ery": 1633,
    "Ġden": 1634,
    "att": 1635,
    "use": 1636,
    "ient": 1637,
    "Ġyours": 1638,
    "Ġoath": 1639,
    "onder": 1640,
    "ague": 1641,
    "Ġbreak": 1642,
    "YORK": 1643,
    "Ġthree": 1644,
    "Ġmeans": 1645,
    "Ġyield": 1646,
    "gether": 1647,
    "GREMIO": 1648,
    "Ġsubject": 1649,
    "POMPEY": 1650,
    "yb": 1651,
    "PO": 1652,
    "Ġaw": 1653,
    "Ġmer": 1654,
    "anc": 1655,
    "XEN": 1656,
    "ANT": 1657,
    "usic": 1658,
    "Ġborn": 1659,
    "Ġbloody": 1660,
    "Ġlooks": 1661,
    "eft": 1662,
    "Ġthings": 1663,
    "UMN": 1664,
    "like": 1665,
    "ĠNor": 1666,
    "ches": 1667,
    "Ġwhile": 1668,
    "Ġhorse": 1669,
    "ybalt": 1670,
    "POLI": 1671,
    "XENES": 1672,
    "UMNIA": 1673,
    "POLIXENES": 1674,
    "VOLUMNIA": 1675,
    "up": 1676,
    "Ġwin": 1677,
    "Her": 1678,
    "ues": 1679,
    "Ġspo": 1680,
    "Ġfaith": 1681,
    "INGS": 1682,
    "rong": 1683,
    "Ġtem": 1684,
    "Ġyourself": 1685,
    "Ġsupp": 1686,
    "Ġwound": 1687,
    "GON": 1688,
    "Ġfire": 1689,
    "enger": 1690,
    "Ġmaj": 1691,
    "centio": 1692,
    "Ġtraitor": 1693,
    "\u0000.\u0000": 1694,
    "ervingman": 1695,
    "STINGS": 1696,
    "ĠServingman": 1697,
    "bs": 1698,
    "rem": 1699,
    "Say": 1700,
    "Ġlam": 1701,
    "Ġdru": 1702,
    "AUR": 1703,
    "Ġmark": 1704,
    "Ġcommon": 1705,
    "ertain": 1706,
    "Ġchildren": 1707,
    "Ġmistress": 1708,
    "broke": 1709,
    "essenger": 1710,
    "HASTINGS": 1711,
    "AURENCE": 1712,
    "ĠLAURENCE": 1713,
    "BY": 1714,
    "Ġbeat": 1715,
    "Ġdef": 1716,
    "Ġval": 1717,
    "BER": 1718,
    "Ġrequ": 1719,
    "Ġcond": 1720,
    "Therefore": 1721,
    "form": 1722,
    "Ġuncle": 1723,
    "Ġmajesty": 1724,
    "FF": 1725,
    "Ġsin": 1726,
    "Ġtold": 1727,
    "Ġmet": 1728,
    "Was": 1729,
    "Ġsoon": 1730,
    "Ġseen": 1731,
    "Ġlate": 1732,
    "Look": 1733,
    "CLI": 1734,
    "Ġsave": 1735,
    "Ġdays": 1736,
    "Ġaff": 1737,
    "THUM": 1738,
    "Ġwoe": 1739,
    "ĠEngland": 1740,
    "Ġtender": 1741,
    "Ġleft": 1742,
    "BERLAND": 1743,
    "CLIFF": 1744,
    "NORTHUM": 1745,
    "NORTHUMBERLAND": 1746,
    "ID": 1747,
    "Ġmon": 1748,
    "ring": 1749,
    "bed": 1750,
    "ides": 1751,
    "idow": 1752,
    "ever": 1753,
    "Ġdoes": 1754,
    "Take": 1755,
    "Ġsight": 1756,
    "Though": 1757,
    "Ġreturn": 1758,
    "Ġmercy": 1759,
    "Ġgener": 1760,
    "Ġfarewell": 1761,
    "ac": 1762,
    "mp": 1763,
    "hes": 1764,
    "rel": 1765,
    "Ġsit": 1766,
    "ten": 1767,
    "dom": 1768,
    "Ġsad": 1769,
    "ters": 1770,
    "ĠAN": 1771,
    "Ġgold": 1772,
    "Ġdeep": 1773,
    "unes": 1774,
    "Ġmarry": 1775,
    "Ġfoot": 1776,
    "ĠJul": 1777,
    "Ġwarrant": 1778,
    "Ġthrough": 1779,
    "Ġheavy": 1780,
    "Ġpurpose": 1781,
    "Ġdanger": 1782,
    "ĠANNE": 1783,
    "so": 1784,
    "Ah": 1785,
    "PR": 1786,
    "und": 1787,
    "mer": 1788,
    "aim": 1789,
    "ours": 1790,
    "Ġill": 1791,
    "vent": 1792,
    "Did": 1793,
    "Ġsure": 1794,
    "earn": 1795,
    "Ġcho": 1796,
    "ict": 1797,
    "Ġgrow": 1798,
    "Give": 1799,
    "INCE": 1800,
    "Ġdeser": 1801,
    "Ġnurse": 1802,
    "ments": 1803,
    "Ġcold": 1804,
    "ifford": 1805,
    "CAPULET": 1806,
    "ignior": 1807,
    "Ġtogether": 1808,
    "PRINCE": 1809,
    "ca": 1810,
    "az": 1811,
    "ceed": 1812,
    "enty": 1813,
    "aid": 1814,
    "Ġask": 1815,
    "ush": 1816,
    "Ġlost": 1817,
    "Ġwithout": 1818,
    "oling": 1819,
    "ross": 1820,
    "Ġreport": 1821,
    "Ġpluck": 1822,
    "Ġliege": 1823,
    "arewell": 1824,
    "oint": 1825,
    "oriol": 1826,
    "Ġtimes": 1827,
    "Ġbelieve": 1828,
    "Ġspirit": 1829,
    "olingbroke": 1830,
    "sh": 1831,
    "xt": 1832,
    "ling": 1833,
    "Ġwat": 1834,
    "Ġair": 1835,
    "Ġheir": 1836,
    "ets": 1837,
    "ains": 1838,
    "ift": 1839,
    "Ġage": 1840,
    "outh": 1841,
    "Ġthyself": 1842,
    "Ġsays": 1843,
    "Whose": 1844,
    "Ġloss": 1845,
    "ĠMont": 1846,
    "One": 1847,
    "Ġstrange": 1848,
    "ĠBolingbroke": 1849,
    "no": 1850,
    "ner": 1851,
    "ced": 1852,
    "Had": 1853,
    "ial": 1854,
    "Ġcry": 1855,
    "ALO": 1856,
    "aking": 1857,
    "Ġears": 1858,
    "Ġhaste": 1859,
    "Ġsuff": 1860,
    "Ġentreat": 1861,
    "Ġdevil": 1862,
    "Ġground": 1863,
    "Should": 1864,
    "Ġperson": 1865,
    "ĠJuliet": 1866,
    "Ġlearn": 1867,
    "ĠClifford": 1868,
    "Wh": 1869,
    "Ġag": 1870,
    "oman": 1871,
    "let": 1872,
    "ined": 1873,
    "Ġfly": 1874,
    "Ġmur": 1875,
    "Ġfast": 1876,
    "Ġvis": 1877,
    "Ġpast": 1878,
    "night": 1879,
    "aud": 1880,
    "ĠLu": 1881,
    "Ġtoward": 1882,
    "Ġfriar": 1883,
    "Ġdisp": 1884,
    "Ġslain": 1885,
    "Ġbetw": 1886,
    "Ġpoint": 1887,
    "ixt": 1888,
    "Ġjustice": 1889,
    "ĠFrance": 1890,
    "Ġstraight": 1891,
    "Like": 1892,
    "Ġremember": 1893,
    "IZ": 1894,
    "FL": 1895,
    "ina": 1896,
    "May": 1897,
    "Some": 1898,
    "Ġord": 1899,
    "These": 1900,
    "ution": 1901,
    "Ġnear": 1902,
    "Ġsil": 1903,
    "ĠCA": 1904,
    "AUF": 1905,
    "entleman": 1906,
    "Ġquick": 1907,
    "Ġtrust": 1908,
    "Ġalone": 1909,
    "Ġdesire": 1910,
    "Ġcurse": 1911,
    "Ġbold": 1912,
    "Ġworthy": 1913,
    "Ġinstru": 1914,
    "Ġbeauty": 1915,
    "Ġservice": 1916,
    "Ġstrong": 1917,
    "IDIUS": 1918,
    "IZEL": 1919,
    "FLOR": 1920,
    "ĠCAPULET": 1921,
    "AUFIDIUS": 1922,
    "FLORIZEL": 1923,
    "gs": 1924,
    "SE": 1925,
    "ithe": 1926,
    "ĠIs": 1927,
    "ning": 1928,
    "Can": 1929,
    "with": 1930,
    "ION": 1931,
    "adam": 1932,
    "Tell": 1933,
    "VER": 1934,
    "ured": 1935,
    "Ġfound": 1936,
    "Ġready": 1937,
    "Ġposs": 1938,
    "Ġrun": 1939,
    "Ġhard": 1940,
    "Ġbrought": 1941,
    "ship": 1942,
    "Ġenemy": 1943,
    "Ġtouch": 1944,
    "Ġrevenge": 1945,
    "ĠTybalt": 1946,
    "Ġgeneral": 1947,
    "audio": 1948,
    "Ha": 1949,
    "vo": 1950,
    "!'": 1951,
    "Ġinf": 1952,
    "Ġwoo": 1953,
    "amill": 1954,
    "Ġlose": 1955,
    "ible": 1956,
    "aunt": 1957,
    "Ġknows": 1958,
    "Ġcanst": 1959,
    "Ġitself": 1960,
    "ĠSen": 1961,
    "inks": 1962,
    "cept": 1963,
    "umber": 1964,
    "ĠHere": 1965,
    "Ġthoughts": 1966,
    "Ġgrant": 1967,
    "Ġmarried": 1968,
    "Ġduty": 1969,
    "Ġcharge": 1970,
    "ĠSenator": 1971,
    "Sp": 1972,
    "ua": 1973,
    "\u0000,": 1974,
    "lou": 1975,
    "Ġiss": 1976,
    "Ġwear": 1977,
    "Ġread": 1978,
    "CIUS": 1979,
    "eep": 1980,
    "Ġquar": 1981,
    "ĠYou": 1982,
    "Ġprof": 1983,
    "RICHARD": 1984,
    "Ġmarri": 1985,
    "Ġmorn": 1986,
    "Bec": 1987,
    "Ġstands": 1988,
    "Ġdeli": 1989,
    "ched": 1990,
    "Ġhours": 1991,
    "BAST": 1992,
    "Ġspeed": 1993,
    "Ġconfess": 1994,
    "Ġstreng": 1995,
    "Shepherd": 1996,
    "Against": 1997,
    "cester": 1998,
    "Ġtwenty": 1999,
    "ithee": 2000,
    "\u0000,\u0000": 2001,
    "BASTIAN": 2002,
    "SEBASTIAN": 2003,
    "gu": 2004,
    "ĠN": 2005,
    "OW": 2006,
    "ones": 2007,
    "Ġcar": 2008,
    "Ġhell": 2009,
    "Ġinc": 2010,
    "oop": 2011,
    "Ġfur": 2012,
    "Ġfore": 2013,
    "Thus": 2014,
    "Ġyouth": 2015,
    "ĠRi": 2016,
    "olk": 2017,
    "Ġpost": 2018,
    "ĠHast": 2019,
    "ump": 2020,
    "Ġexec": 2021,
    "Ġfearful": 2022,
    "Ġmock": 2023,
    "fection": 2024,
    "ucking": 2025,
    "Ġjud": 2026,
    "Ġfield": 2027,
    "Ġhalf": 2028,
    "Ġdiv": 2029,
    "Ġcounsel": 2030,
    "amillo": 2031,
    "Ġmin": 2032,
    "Ġter": 2033,
    "Ġpar": 2034,
    "Com": 2035,
    "Till": 2036,
    "ads": 2037,
    "Ġrec": 2038,
    "alm": 2039,
    "Ġdel": 2040,
    "cess": 2041,
    "pare": 2042,
    "ols": 2043,
    "Ġwork": 2044,
    "ortal": 2045,
    "ELLO": 2046,
    "Ġhearts": 2047,
    "Ġdesp": 2048,
    "itizens": 2049,
    "osom": 2050,
    "Ġresol": 2051,
    "Ġwret": 2052,
    "Ġeach": 2053,
    "Ġbehold": 2054,
    "Ġbatt": 2055,
    "ĠCoriol": 2056,
    "ĠMontague": 2057,
    "IOND": 2058,
    "ĠClaudio": 2059,
    "MARCIUS": 2060,
    "Ġmarriage": 2061,
    "loucester": 2062,
    "uckingham": 2063,
    "Ġbosom": 2064,
    "IONDELLO": 2065,
    "BIONDELLO": 2066,
    "Ġtit": 2067,
    "ges": 2068,
    "Ġten": 2069,
    "Ġye": 2070,
    "now": 2071,
    "Ġcut": 2072,
    "ench": 2073,
    "ĠThe": 2074,
    "bly": 2075,
    "rah": 2076,
    "Ġdam": 2077,
    "most": 2078,
    "Ġknown": 2079,
    "iers": 2080,
    "Ġshort": 2081,
    "Ġbound": 2082,
    "Ġseek": 2083,
    "MON": 2084,
    "Away": 2085,
    "ĠCap": 2086,
    "Ġharm": 2087,
    "Ġtale": 2088,
    "Ġguilt": 2089,
    "Ġhighness": 2090,
    "Ġstrike": 2091,
    "Ġattend": 2092,
    "Ġserve": 2093,
    "Ġopen": 2094,
    "Ġcompany": 2095,
    "Ġmurder": 2096,
    "Madam": 2097,
    "folk": 2098,
    "ĠHastings": 2099,
    "ĠBuckingham": 2100,
    "OP": 2101,
    "Ġve": 2102,
    "rest": 2103,
    "Ġsat": 2104,
    "ents": 2105,
    "Ġwhi": 2106,
    "hood": 2107,
    "ander": 2108,
    "Ġsuit": 2109,
    "chan": 2110,
    "HER": 2111,
    "ĠHe": 2112,
    "Ġdish": 2113,
    "ĠAU": 2114,
    "ONIO": 2115,
    "Ġdist": 2116,
    "Ġhonest": 2117,
    "Ġside": 2118,
    "Ġheavens": 2119,
    "Ġloving": 2120,
    "Ġwatch": 2121,
    "Ġtrib": 2122,
    "MERLE": 2123,
    "Ġfeel": 2124,
    "Ġdraw": 2125,
    "Ġvoices": 2126,
    "ished": 2127,
    "Ġsomething": 2128,
    "Farewell": 2129,
    "Ġstrength": 2130,
    "ANTONIO": 2131,
    "ĠAUMERLE": 2132,
    "Ġbit": 2133,
    "Ġcor": 2134,
    "ging": 2135,
    "Ġsto": 2136,
    "Ġstir": 2137,
    "fid": 2138,
    "Ġsake": 2139,
    "Ġwast": 2140,
    "Ġact": 2141,
    "Ġdidst": 2142,
    "See": 2143,
    "Ġwomen": 2144,
    "Ġcloud": 2145,
    "Pray": 2146,
    "Ġgentlemen": 2147,
    "Marry": 2148,
    "Ġenemies": 2149,
    "Ġwonder": 2150,
    "ancaster": 2151,
    "GONZ": 2152,
    "Ġwidow": 2153,
    "ĠGentleman": 2154,
    "ethinks": 2155,
    "ĠGloucester": 2156,
    "ĠLancaster": 2157,
    "GONZALO": 2158,
    "rew": 2159,
    "Ġdr": 2160,
    "Ġsing": 2161,
    "oose": 2162,
    "race": 2163,
    "Ġpra": 2164,
    "ils": 2165,
    "Unt": 2166,
    "Ġcoming": 2167,
    "Ġpie": 2168,
    "ives": 2169,
    "Ġbreat": 2170,
    "Ġclose": 2171,
    "Ġsouls": 2172,
    "Ġthanks": 2173,
    "Ġcourse": 2174,
    "Ġenter": 2175,
    "Ġknew": 2176,
    "Ġpale": 2177,
    "Ġchee": 2178,
    "Ġbrave": 2179,
    "Ġgates": 2180,
    "ceived": 2181,
    "Ġpleasure": 2182,
    "Ġwithal": 2183,
    "Ġmusic": 2184,
    "ianca": 2185,
    "Ġnext": 2186,
    "ĠCamillo": 2187,
    "Ġtitle": 2188,
    "ne": 2189,
    "Ġty": 2190,
    "you": 2191,
    "Ġwa": 2192,
    "Ġfit": 2193,
    "Ġgar": 2194,
    "ats": 2195,
    "etch": 2196,
    "Ġforg": 2197,
    "vour": 2198,
    "Ġbur": 2199,
    "DIO": 2200,
    "rust": 2201,
    "etru": 2202,
    "fter": 2203,
    "oward": 2204,
    "els": 2205,
    "Ġjest": 2206,
    "Ġweak": 2207,
    "Ġplain": 2208,
    "Ġeither": 2209,
    "Ġabs": 2210,
    "Ġpret": 2211,
    "Ġlips": 2212,
    "Ġbecome": 2213,
    "Ġgrie": 2214,
    "CLAU": 2215,
    "Ġchange": 2216,
    "MIONE": 2217,
    "CLIFFORD": 2218,
    "claim": 2219,
    "Ġsuffer": 2220,
    "Ġdeliver": 2221,
    "ĠNorfolk": 2222,
    "CLAUDIO": 2223,
    "HERMIONE": 2224,
    "DA": 2225,
    "Ġsk": 2226,
    "Ġwis": 2227,
    "isf": 2228,
    "kes": 2229,
    "ses": 2230,
    "Ġforb": 2231,
    "oof": 2232,
    "cher": 2233,
    "Ġreg": 2234,
    "urp": 2235,
    "east": 2236,
    "ĠTh": 2237,
    "irth": 2238,
    "Ġven": 2239,
    "Ġcast": 2240,
    "Most": 2241,
    "Ġwall": 2242,
    "Ġworse": 2243,
    "Ġsame": 2244,
    "ĠPom": 2245,
    "Ġtook": 2246,
    "chio": 2247,
    "Ġsick": 2248,
    "Ġsign": 2249,
    "Ġalong": 2250,
    "ready": 2251,
    "Ġrich": 2252,
    "uff": 2253,
    "Ġbreast": 2254,
    "EDWARD": 2255,
    "ranio": 2256,
    "Ġconsul": 2257,
    "Ġpoison": 2258,
    "MIRAN": 2259,
    "twas": 2260,
    "Ġforget": 2261,
    "Ġcheer": 2262,
    "LORD": 2263,
    "Ġthemselves": 2264,
    "Ġpatience": 2265,
    "twere": 2266,
    "Ġmerry": 2267,
    "Ġorder": 2268,
    "fidius": 2269,
    "ĠBianca": 2270,
    "etruchio": 2271,
    "MIRANDA": 2272,
    "ufidius": 2273,
    "OH": 2274,
    "SA": 2275,
    "oin": 2276,
    "Ġdu": 2277,
    "ĠIf": 2278,
    "lst": 2279,
    "Ġwed": 2280,
    "chm": 2281,
    "Ġfour": 2282,
    "Ġbad": 2283,
    "ries": 2284,
    "ash": 2285,
    "vern": 2286,
    "ions": 2287,
    "rows": 2288,
    "ally": 2289,
    "Ġbook": 2290,
    "SON": 2291,
    "Ġoffice": 2292,
    "Ġgave": 2293,
    "Ġliber": 2294,
    "Being": 2295,
    "Ġmove": 2296,
    "Servant": 2297,
    "Ġself": 2298,
    "Ġvirtue": 2299,
    "Ġgiven": 2300,
    "Messenger": 2301,
    "Ġmouth": 2302,
    "ĠHereford": 2303,
    "Ġissue": 2304,
    "Ġmorning": 2305,
    "Ġfurther": 2306,
    "Ġbattle": 2307,
    "Ġalready": 2308,
    "OHN": 2309,
    "nk": 2310,
    "Ġta": 2311,
    "she": 2312,
    "Ġac": 2313,
    "oun": 2314,
    "pes": 2315,
    "esh": 2316,
    "Ġpay": 2317,
    "Ġlad": 2318,
    "Ġred": 2319,
    "Ġgro": 2320,
    "each": 2321,
    "anus": 2322,
    "orge": 2323,
    "Make": 2324,
    "uous": 2325,
    "icer": 2326,
    "Ġgoes": 2327,
    "Ġprop": 2328,
    "rist": 2329,
    "Ġdire": 2330,
    "Ġsworn": 2331,
    "Since": 2332,
    "Ġblack": 2333,
    "Ġsons": 2334,
    "Ġfoe": 2335,
    "Ġwise": 2336,
    "Ġext": 2337,
    "Ġfrown": 2338,
    "Ġburn": 2339,
    "mber": 2340,
    "ccess": 2341,
    "ĠTower": 2342,
    "Before": 2343,
    "Ġtrou": 2344,
    "Ġbegin": 2345,
    "Ġbegg": 2346,
    "elcome": 2347,
    "Ġconsent": 2348,
    "Ġsoft": 2349,
    "used": 2350,
    "dden": 2351,
    "Ġrequest": 2352,
    "ĠSignior": 2353,
    "ĠLucentio": 2354,
    "Ġbetween": 2355,
    "Ġquarrel": 2356,
    "Ġsoldiers": 2357,
    "Ġsatisf": 2358,
    "Ġfeast": 2359,
    "chmond": 2360,
    "Re": 2361,
    "IR": 2362,
    "Sw": 2363,
    "AS": 2364,
    "NT": 2365,
    "\u0000!": 2366,
    "hem": 2367,
    "Ġcr": 2368,
    "aris": 2369,
    "Ġbar": 2370,
    "ots": 2371,
    "ting": 2372,
    "irm": 2373,
    "Ġthri": 2374,
    "Ġdro": 2375,
    "stand": 2376,
    "ĠCh": 2377,
    "Must": 2378,
    "ends": 2379,
    "Ġbless": 2380,
    "ĠFor": 2381,
    "aret": 2382,
    "owers": 2383,
    "ires": 2384,
    "ures": 2385,
    "Call": 2386,
    "Ġthence": 2387,
    "Ġworth": 2388,
    "Ġloves": 2389,
    "ung": 2390,
    "empt": 2391,
    "Such": 2392,
    "Ġexp": 2393,
    "Ġcase": 2394,
    "awd": 2395,
    "Ġpresence": 2396,
    "CATES": 2397,
    "Ġdark": 2398,
    "Ġpriv": 2399,
    "Ġservant": 2400,
    "Unless": 2401,
    "Alas": 2402,
    "Ġwounds": 2403,
    "Ġdangerous": 2404,
    "Because": 2405,
    "ĠAufidius": 2406,
    "\u0000!\u0000": 2407,
    "garet": 2408,
    "CATESBY": 2409,
    "LY": 2410,
    "oll": 2411,
    "ona": 2412,
    "that": 2413,
    "Ġhot": 2414,
    "Ġgot": 2415,
    "Ġble": 2416,
    "Ġund": 2417,
    "onour": 2418,
    "Ġev": 2419,
    "Ġsum": 2420,
    "Ġinter": 2421,
    "emn": 2422,
    "ondon": 2423,
    "ĠSir": 2424,
    "cient": 2425,
    "Ġneither": 2426,
    "Ġwars": 2427,
    "Ġsigh": 2428,
    "Ġmighty": 2429,
    "Ġflatter": 2430,
    "Ġdread": 2431,
    "Ġbrief": 2432,
    "Ġbride": 2433,
    "Ġthrone": 2434,
    "Ġvoice": 2435,
    "Ġemb": 2436,
    "Ġrespect": 2437,
    "aptist": 2438,
    "Ġdeny": 2439,
    "Ġspoke": 2440,
    "Ġvict": 2441,
    "Ġwater": 2442,
    "Ġvisit": 2443,
    "ĠVols": 2444,
    "ĠLondon": 2445,
    "rt": 2446,
    "ip": 2447,
    "\u0000?": 2448,
    "ern": 2449,
    "Yes": 2450,
    "Ġbow": 2451,
    "Rome": 2452,
    "right": 2453,
    "ught": 2454,
    "ided": 2455,
    "Ġfra": 2456,
    "Ġhur": 2457,
    "Ġmal": 2458,
    "Ġest": 2459,
    "Lest": 2460,
    "mand": 2461,
    "rum": 2462,
    "Ġvow": 2463,
    "iant": 2464,
    "ĠGe": 2465,
    "Both": 2466,
    "Ġloved": 2467,
    "Ġkings": 2468,
    "LIA": 2469,
    "Ġsafe": 2470,
    "ired": 2471,
    "Ġtown": 2472,
    "Ġhaving": 2473,
    "ainted": 2474,
    "Ġbab": 2475,
    "BAL": 2476,
    "Ġprincely": 2477,
    "BRA": 2478,
    "Ġseems": 2479,
    "Ġspeech": 2480,
    "IANCA": 2481,
    "bey": 2482,
    "REY": 2483,
    "Ġbuy": 2484,
    "Ġdeeds": 2485,
    "Ġoften": 2486,
    "Whom": 2487,
    "VERS": 2488,
    "Ġworship": 2489,
    "Ġmortal": 2490,
    "Ġbitter": 2491,
    "JOHN": 2492,
    "Ġchamber": 2493,
    "Ġsudden": 2494,
    "ĠRichmond": 2495,
    "ĠParis": 2496,
    "ĠMargaret": 2497,
    "Ġancient": 2498,
    "aptista": 2499,
    "\u0000?\u0000": 2500,
    "ĠGeorge": 2501,
    "BIANCA": 2502,
    "sp": 2503,
    "mb": 2504,
    "ls": 2505,
    "Ġpen": 2506,
    "king": 2507,
    "ated": 2508,
    "Ġlim": 2509,
    "ura": 2510,
    "urch": 2511,
    "cks": 2512,
    "otion": 2513,
    "oney": 2514,
    "Ġprot": 2515,
    "Ġcol": 2516,
    "resh": 2517,
    "lish": 2518,
    "ĠPl": 2519,
    "Ġsac": 2520,
    "ĠGAU": 2521,
    "ELB": 2522,
    "ĠThou": 2523,
    "ĠThis": 2524,
    "antage": 2525,
    "ĠLady": 2526,
    "Ġheads": 2527,
    "Ġscorn": 2528,
    "ĠSaint": 2529,
    "Ġrage": 2530,
    "Ġappear": 2531,
    "Ġlead": 2532,
    "Ġwitness": 2533,
    "essed": 2534,
    "ĠServant": 2535,
    "Ġknock": 2536,
    "Ġpromise": 2537,
    "Ġpatient": 2538,
    "Ġlament": 2539,
    "Ġkingdom": 2540,
    "Ġcross": 2541,
    "ĠIsab": 2542,
    "Speak": 2543,
    "Ġfetch": 2544,
    "Ġcoward": 2545,
    "Ġsuccess": 2546,
    "Welcome": 2547,
    "Ġvaliant": 2548,
    "RIVERS": 2549,
    "ĠBaptista": 2550,
    "ĠGAUNT": 2551,
    "ELBOW": 2552,
    "su": 2553,
    "cy": 2554,
    "TY": 2555,
    "Ere": 2556,
    "Bes": 2557,
    "Ġow": 2558,
    "Ġcle": 2559,
    "will": 2560,
    "Ġeat": 2561,
    "Their": 2562,
    "Ġbro": 2563,
    "iff": 2564,
    "Ġang": 2565,
    "Ġthrow": 2566,
    "Ġprin": 2567,
    "ĠMy": 2568,
    "ĠKING": 2569,
    "Ġwash": 2570,
    "Ġopp": 2571,
    "Ġgall": 2572,
    "Ġcreat": 2573,
    "aken": 2574,
    "Ġforward": 2575,
    "nown": 2576,
    "Ġenc": 2577,
    "Ġign": 2578,
    "ities": 2579,
    "Ġoffer": 2580,
    "Ġlack": 2581,
    "GUE": 2582,
    "antag": 2583,
    "Ġleast": 2584,
    "Ġslave": 2585,
    "Ġcap": 2586,
    "itted": 2587,
    "Hold": 2588,
    "Ġprayers": 2589,
    "sper": 2590,
    "Ġmoon": 2591,
    "then": 2592,
    "Ġappro": 2593,
    "Ġaction": 2594,
    "xford": 2595,
    "Ġcompl": 2596,
    "Ġkins": 2597,
    "ortens": 2598,
    "Ġviol": 2599,
    "Ġprithee": 2600,
    "Ġtriump": 2601,
    "Ġprepare": 2602,
    "Ġtribunes": 2603,
    "Ġdrink": 2604,
    "ĠTranio": 2605,
    "ĠPetruchio": 2606,
    "Ġflesh": 2607,
    "ĠChrist": 2608,
    "Ġbawd": 2609,
    "Romeo": 2610,
    "TAGUE": 2611,
    "ortensio": 2612,
    "oor": 2613,
    "ler": 2614,
    "bit": 2615,
    "ines": 2616,
    "ees": 2617,
    "ley": 2618,
    "Ġnay": 2619,
    "but": 2620,
    "Ġmid": 2621,
    "Ġid": 2622,
    "Ġreb": 2623,
    "raw": 2624,
    "Ġsur": 2625,
    "als": 2626,
    "vest": 2627,
    "Ġdest": 2628,
    "Yea": 2629,
    "alth": 2630,
    "host": 2631,
    "Ġbeast": 2632,
    "Ġfie": 2633,
    "asters": 2634,
    "feit": 2635,
    "aked": 2636,
    "pey": 2637,
    "athar": 2638,
    "joy": 2639,
    "Ġthither": 2640,
    "Ġhide": 2641,
    "ully": 2642,
    "Ġscar": 2643,
    "Ġsmall": 2644,
    "Ġpresently": 2645,
    "Ġfaults": 2646,
    "Ġdepart": 2647,
    "Ġsecret": 2648,
    "Ġsubjects": 2649,
    "Ġdefend": 2650,
    "Ġpossess": 2651,
    "umberland": 2652,
    "Ġalmost": 2653,
    "ohem": 2654,
    "atharina": 2655,
    "thumberland": 2656,
    "DI": 2657,
    "GI": 2658,
    "Pl": 2659,
    "rey": 2660,
    "Con": 2661,
    "Ġben": 2662,
    "arl": 2663,
    "ying": 2664,
    "inger": 2665,
    "Ġbec": 2666,
    "Ġins": 2667,
    "Ġform": 2668,
    "Ġfill": 2669,
    "Ġeas": 2670,
    "ingly": 2671,
    "Whi": 2672,
    "Ġpain": 2673,
    "rue": 2674,
    "Ġstru": 2675,
    "Ġtear": 2676,
    "aul": 2677,
    "Ġgoodly": 2678,
    "hind": 2679,
    "Ġfond": 2680,
    "cience": 2681,
    "Ġwhence": 2682,
    "IEL": 2683,
    "Ġhearing": 2684,
    "Ġbase": 2685,
    "though": 2686,
    "Ġwrit": 2687,
    "Ġliving": 2688,
    "perate": 2689,
    "Ġslaughter": 2690,
    "Ġlab": 2691,
    "ledge": 2692,
    "Ġwert": 2693,
    "Stand": 2694,
    "Stay": 2695,
    "Ġchance": 2696,
    "Ġperform": 2697,
    "Ġtrump": 2698,
    "Ġquickly": 2699,
    "Ġdamn": 2700,
    "Ġusurp": 2701,
    "Ġbirth": 2702,
    "Ġvirtuous": 2703,
    "VIR": 2704,
    "ĠGREY": 2705,
    "ural": 2706,
    "MONTAGUE": 2707,
    "ohemia": 2708,
    "DITA": 2709,
    "GILIA": 2710,
    "PERDITA": 2711,
    "VIRGILIA": 2712,
    "ze": 2713,
    "Ab": 2714,
    "gg": 2715,
    "Ġay": 2716,
    "ror": 2717,
    "Ġtor": 2718,
    "ony": 2719,
    "Ġca": 2720,
    "arn": 2721,
    "Ġpu": 2722,
    "Ġpit": 2723,
    "ding": 2724,
    "sem": 2725,
    "Ġinj": 2726,
    "eds": 2727,
    "Ġut": 2728,
    "Ġur": 2729,
    "your": 2730,
    "read": 2731,
    "over": 2732,
    "iest": 2733,
    "Ġshad": 2734,
    "astard": 2735,
    "SET": 2736,
    "edant": 2737,
    "ustom": 2738,
    "eem": 2739,
    "Doth": 2740,
    "ĠSt": 2741,
    "isure": 2742,
    "Think": 2743,
    "Ġhadst": 2744,
    "Ġoffence": 2745,
    "Ġknee": 2746,
    "oss": 2747,
    "Ġadm": 2748,
    "Ġpleas": 2749,
    "force": 2750,
    "Peace": 2751,
    "Ġmatch": 2752,
    "Ġblows": 2753,
    "Ġslew": 2754,
    "Ġfier": 2755,
    "IANA": 2756,
    "Ġlawful": 2757,
    "Ġglad": 2758,
    "Ġquiet": 2759,
    "Ġkneel": 2760,
    "bling": 2761,
    "Ġweeping": 2762,
    "Ġwild": 2763,
    "Ġmild": 2764,
    "Ġsoldier": 2765,
    "Ġawhile": 2766,
    "Ġcertain": 2767,
    "Ġdeserved": 2768,
    "Ġproceed": 2769,
    "Ġinno": 2770,
    "Ġexecution": 2771,
    "Ġaffection": 2772,
    "Ġguilty": 2773,
    "Ġpretty": 2774,
    "ĠCoriolanus": 2775,
    "SLY": 2776,
    "Ġangry": 2777,
    "ĠOxford": 2778,
    "ĠPompey": 2779,
    "ĠPaul": 2780,
    "MARIANA": 2781,
    "Fa": 2782,
    "RA": 2783,
    "Ġap": 2784,
    "zen": 2785,
    "Mar": 2786,
    "Ġob": 2787,
    "Ġhap": 2788,
    "med": 2789,
    "ked": 2790,
    "Ġmed": 2791,
    "urs": 2792,
    "ual": 2793,
    "PAR": 2794,
    "Ġshi": 2795,
    "eness": 2796,
    "Ġdoom": 2797,
    "Ġfam": 2798,
    "ames": 2799,
    "Ġnob": 2800,
    "dge": 2801,
    "Ġyear": 2802,
    "Ġneck": 2803,
    "Ġsho": 2804,
    "ended": 2805,
    "Ġblow": 2806,
    "vol": 2807,
    "Ġwouldst": 2808,
    "Ġmod": 2809,
    "Ġunk": 2810,
    "Ġunc": 2811,
    "Ġworst": 2812,
    "gue": 2813,
    "Ġspeaks": 2814,
    "rupt": 2815,
    "Ġreign": 2816,
    "Ġmarch": 2817,
    "awn": 2818,
    "VINCENTIO": 2819,
    "Ġocc": 2820,
    "ighb": 2821,
    "Ġgreater": 2822,
    "Master": 2823,
    "Ġforsw": 2824,
    "Ġfled": 2825,
    "Ġshows": 2826,
    "Ġwalk": 2827,
    "Ġtreason": 2828,
    "osition": 2829,
    "Ġourselves": 2830,
    "Ġmeasure": 2831,
    "Ġbanishment": 2832,
    "Ġsense": 2833,
    "remio": 2834,
    "Ġletters": 2835,
    "ointed": 2836,
    "adua": 2837,
    "Ġclouds": 2838,
    "Ġbreathe": 2839,
    "Ġfavour": 2840,
    "Ġforbid": 2841,
    "Ġgovern": 2842,
    "Ġliberty": 2843,
    "ounter": 2844,
    "Ġladies": 2845,
    "Ġtrouble": 2846,
    "Ġdishonour": 2847,
    "Ġcondemn": 2848,
    "rumio": 2849,
    "ĠEnglish": 2850,
    "ĠIsabel": 2851,
    "antagen": 2852,
    "fully": 2853,
    "ĠKatharina": 2854,
    "Ġleisure": 2855,
    "PARIS": 2856,
    ":'": 2857,
    "ĠX": 2858,
    "Ġwon": 2859,
    "vel": 2860,
    "ster": 2861,
    "aring": 2862,
    "Ġlan": 2863,
    "set": 2864,
    "dle": 2865,
    "Ġheld": 2866,
    "ued": 2867,
    "Out": 2868,
    "rim": 2869,
    "Ġnote": 2870,
    "Too": 2871,
    "Ġstor": 2872,
    "ider": 2873,
    "Ġref": 2874,
    "Ġdog": 2875,
    "Ġseat": 2876,
    "Ġcru": 2877,
    "iles": 2878,
    "Ġvain": 2879,
    "rous": 2880,
    "Int": 2881,
    "Ġdry": 2882,
    "Ġletter": 2883,
    "Ġsort": 2884,
    "aves": 2885,
    "ounds": 2886,
    "Ġlist": 2887,
    "Ġnoise": 2888,
    "Ġlived": 2889,
    "Ġrough": 2890,
    "Ġmorrow": 2891,
    "ize": 2892,
    "Ġaside": 2893,
    "house": 2894,
    "Ġremain": 2895,
    "Ġlonger": 2896,
    "Ġwomb": 2897,
    "ĠMerc": 2898,
    "ators": 2899,
    "While": 2900,
    "Ġneeds": 2901,
    "acle": 2902,
    "Ġabove": 2903,
    "Ġprisoner": 2904,
    "Ġsecond": 2905,
    "Ġtemp": 2906,
    "Ġgolden": 2907,
    "undred": 2908,
    "Ġlaid": 2909,
    "Ġdispatch": 2910,
    "Ġchoose": 2911,
    "Ġpiece": 2912,
    "Ġjoin": 2913,
    "Ġobey": 2914,
    "Ġchurch": 2915,
    "Ġfresh": 2916,
    "Ġignor": 2917,
    "Ġprosper": 2918,
    "Ġbecause": 2919,
    "Ġbehind": 2920,
    "ĠBohemia": 2921,
    "antagenet": 2922,
    "ny": 2923,
    "ts": 2924,
    "sc": 2925,
    "bb": 2926,
    "De": 2927,
    "Su": 2928,
    "Pr": 2929,
    "Am": 2930,
    "En": 2931,
    "EW": 2932,
    "Ġlen": 2933,
    "vey": 2934,
    "ott": 2935,
    "Ġlow": 2936,
    "ang": 2937,
    "ban": 2938,
    "Ġoft": 2939,
    "omin": 2940,
    "Ġbell": 2941,
    "Ġbend": 2942,
    "Ġind": 2943,
    "ceit": 2944,
    "erle": 2945,
    "Ġpet": 2946,
    "ety": 2947,
    "Ġmut": 2948,
    "him": 2949,
    "Ġsch": 2950,
    "Ġef": 2951,
    "Ġtent": 2952,
    "ords": 2953,
    "Ġsole": 2954,
    "ART": 2955,
    "Ġstood": 2956,
    "Ġstain": 2957,
    "ease": 2958,
    "Ġsus": 2959,
    "asion": 2960,
    "DOR": 2961,
    "ular": 2962,
    "Ġfine": 2963,
    "Ġlust": 2964,
    "Ġconqu": 2965,
    "ieu": 2966,
    "Ġfive": 2967,
    "Ġshed": 2968,
    "Ġlau": 2969,
    "ĠLet": 2970,
    "!--": 2971,
    "Ġbig": 2972,
    "Ġthreat": 2973,
    "Ġgrand": 2974,
    "ĠPr": 2975,
    "Ġsaf": 2976,
    "ume": 2977,
    "Ġexc": 2978,
    "Ġdrown": 2979,
    "lease": 2980,
    "ĠNow": 2981,
    "Ġbears": 2982,
    "Ġsaint": 2983,
    "Ġappare": 2984,
    "istress": 2985,
    "iled": 2986,
    "under": 2987,
    "atchman": 2988,
    "itors": 2989,
    "icious": 2990,
    "ontent": 2991,
    "Hark": 2992,
    "Ġpride": 2993,
    "Ġprecious": 2994,
    "Ġrevere": 2995,
    "uthor": 2996,
    "Ġdouble": 2997,
    "Ġwoes": 2998,
    "Ġglory": 2999,
    "Ġbroke": 3000,
    "posed": 3001,
    "Ġlands": 3002,
    "Ġsteel": 3003,
    "Ġyourselves": 3004,
    "Ġsteal": 3005,
    "Ġsentence": 3006,
    "atesby": 3007,
    "Ġentertain": 3008,
    "Ġobed": 3009,
    "Ġswift": 3010,
    "ulet": 3011,
    "Ġtowards": 3012,
    "ĠGaunt": 3013,
    "Ġbones": 3014,
    "Ġcitizens": 3015,
    "Sirrah": 3016,
    "Ġslander": 3017,
    "Unto": 3018,
    "Ġforgot": 3019,
    "Ġproclaim": 3020,
    "Ġwisdom": 3021,
    "Ġvenge": 3022,
    "Ġdrunk": 3023,
    "Sweet": 3024,
    "Ġvictory": 3025,
    "Ġblessed": 3026,
    "Ġkinsman": 3027,
    "ĠHortensio": 3028,
    "Ġknees": 3029,
    "ĠNorthumberland": 3030,
    "Ġconscience": 3031,
    "ARIEL": 3032,
    "Ġdesperate": 3033,
    "ĠGremio": 3034,
    "ĠPadua": 3035,
    "ĠXI": 3036,
    "Ġhundred": 3037,
    "EWIS": 3038,
    "Ġeffect": 3039,
    "ARTIUS": 3040,
    "ĠWatchman": 3041,
    "ĠCapulet": 3042,
    "ĠLEWIS": 3043,
    "LARTIUS": 3044,
    "Me": 3045,
    ";'": 3046,
    "hn": 3047,
    "MP": 3048,
    "Ġfe": 3049,
    "den": 3050,
    "owb": 3051,
    "Ġfat": 3052,
    "Ġhair": 3053,
    "pir": 3054,
    "irl": 3055,
    "Ġsour": 3056,
    "Ġeld": 3057,
    "head": 3058,
    "Could": 3059,
    "Ġdoing": 3060,
    "Ġseal": 3061,
    "Ġfru": 3062,
    "estion": 3063,
    "Hear": 3064,
    "ĠCa": 3065,
    "cted": 3066,
    "iful": 3067,
    "ETER": 3068,
    "which": 3069,
    "rent": 3070,
    "ĠGo": 3071,
    "Bel": 3072,
    "ility": 3073,
    "Ġpun": 3074,
    "rence": 3075,
    "Ġran": 3076,
    "ude": 3077,
    "ĠAnt": 3078,
    "Within": 3079,
    "iance": 3080,
    "Ġalive": 3081,
    "Ġabro": 3082,
    "ways": 3083,
    "Ġhonours": 3084,
    "Ġwarm": 3085,
    "gment": 3086,
    "ations": 3087,
    "Ġdeadly": 3088,
    "Ġkept": 3089,
    "Ġcontin": 3090,
    "Ġcontr": 3091,
    "Ġarmy": 3092,
    "Ġfought": 3093,
    "Ġdied": 3094,
    "Pardon": 3095,
    "Ġstud": 3096,
    "Ġfew": 3097,
    "Ġguess": 3098,
    "Ġguest": 3099,
    "vail": 3100,
    "Ġlordship": 3101,
    "RTIS": 3102,
    "Ġmount": 3103,
    "Ġpromised": 3104,
    "eterm": 3105,
    "comes": 3106,
    "Ġcapt": 3107,
    "Ġmanner": 3108,
    "eeper": 3109,
    "Ġdespair": 3110,
    "Ġwretched": 3111,
    "Ġmethinks": 3112,
    "Ġcheeks": 3113,
    "Ġmoney": 3114,
    "Ġmasters": 3115,
    "Ġenjoy": 3116,
    "ĠEarl": 3117,
    "Ġstruck": 3118,
    "Ġlabour": 3119,
    "Ġknowledge": 3120,
    "Pedant": 3121,
    "Faith": 3122,
    "ĠGrumio": 3123,
    "umerle": 3124,
    "Ġauthor": 3125,
    "ohn": 3126,
    "MPSON": 3127,
    "owbray": 3128,
    "CURTIS": 3129,
    "Ġdeterm": 3130,
    "SAMPSON": 3131,
    "ey": 3132,
    "Br": 3133,
    "BU": 3134,
    "EX": 3135,
    "'re": 3136,
    "Dis": 3137,
    "mit": 3138,
    "Ġhel": 3139,
    "llow": 3140,
    "reed": 3141,
    "ited": 3142,
    "Ġsim": 3143,
    "ourn": 3144,
    "Ġaid": 3145,
    "Ġpal": 3146,
    "Ġdeg": 3147,
    "good": 3148,
    "Ġliest": 3149,
    "Ġshake": 3150,
    "ament": 3151,
    "Ġsever": 3152,
    "take": 3153,
    "Ġspent": 3154,
    "stant": 3155,
    "Ġtry": 3156,
    "Ġamong": 3157,
    "eaven": 3158,
    "othing": 3159,
    "Ġherself": 3160,
    "ppy": 3161,
    ":--": 3162,
    "Ġunw": 3163,
    "Ġunp": 3164,
    "ĠHow": 3165,
    "Ġquoth": 3166,
    "Ġprov": 3167,
    "umb": 3168,
    "Ġplant": 3169,
    "ĠWill": 3170,
    "ĠWhy": 3171,
    "osed": 3172,
    "ounce": 3173,
    "Ġrot": 3174,
    "utio": 3175,
    "Ġdance": 3176,
    "Ġcorn": 3177,
    "Ġbrothers": 3178,
    "Either": 3179,
    "Ġearly": 3180,
    "Ġwhether": 3181,
    "LEY": 3182,
    "ĠMaster": 3183,
    "Ġcalls": 3184,
    "Ġcred": 3185,
    "Ġmoved": 3186,
    "Ġhonourable": 3187,
    "Ġwhite": 3188,
    "Ġremed": 3189,
    "orious": 3190,
    "ewis": 3191,
    "Ġkindred": 3192,
    "Ġpriest": 3193,
    "Ġguard": 3194,
    "Ġcried": 3195,
    "Ġcharity": 3196,
    "Ġfoolish": 3197,
    "Ġaccount": 3198,
    "Ġhumble": 3199,
    "Ġcounter": 3200,
    "bury": 3201,
    "Ġdreams": 3202,
    "Ġshepherd": 3203,
    "Ġgreet": 3204,
    "ANTI": 3205,
    "GONUS": 3206,
    "Ġvalour": 3207,
    "Ġjudge": 3208,
    "Citizens": 3209,
    "Ġwretch": 3210,
    "Ġteach": 3211,
    "Ġofficer": 3212,
    "Ġbeggar": 3213,
    "Ġunderstand": 3214,
    "Ġflowers": 3215,
    "Ġsummer": 3216,
    "Ġdemand": 3217,
    "Ġtriumph": 3218,
    "Ġhealth": 3219,
    "Ġbastard": 3220,
    "Ġencounter": 3221,
    "Ġcruel": 3222,
    "ĠMowbray": 3223,
    "BURY": 3224,
    "ANTIGONUS": 3225,
    "Lo": 3226,
    "mon": 3227,
    "Ġdin": 3228,
    "ites": 3229,
    "ining": 3230,
    "Ġga": 3231,
    "ating": 3232,
    "tle": 3233,
    "Bet": 3234,
    "ĠAnd": 3235,
    "Ġforce": 3236,
    "Ġgent": 3237,
    "ask": 3238,
    "Ġthro": 3239,
    "roy": 3240,
    "Ġyea": 3241,
    "ify": 3242,
    "Ġanon": 3243,
    "Fear": 3244,
    "Ġours": 3245,
    "heart": 3246,
    "Ġfart": 3247,
    "Mine": 3248,
    "Ġstone": 3249,
    "iew": 3250,
    "ief": 3251,
    "Ġseven": 3252,
    "Ġgoing": 3253,
    "leep": 3254,
    "fall": 3255,
    "Ġunf": 3256,
    "Ġblame": 3257,
    "Ġpack": 3258,
    "Ġrise": 3259,
    "Ġthinks": 3260,
    "Ġrid": 3261,
    "Ġparty": 3262,
    "Ġadd": 3263,
    "Ġothers": 3264,
    "Ġfaint": 3265,
    "rison": 3266,
    "ians": 3267,
    "Ġdwell": 3268,
    "Ġkindness": 3269,
    "Ġchast": 3270,
    "Ġwail": 3271,
    "Ġbids": 3272,
    "Ġbright": 3273,
    "Ġglass": 3274,
    "Ġweary": 3275,
    "Ġenvy": 3276,
    "Ġmiser": 3277,
    "orthy": 3278,
    "Made": 3279,
    "Ġthereof": 3280,
    "Ġstars": 3281,
    "Ġcrave": 3282,
    "Twas": 3283,
    "Ġwinter": 3284,
    "TCLIFF": 3285,
    "Ġmonth": 3286,
    "ĠRoman": 3287,
    "Ġminister": 3288,
    "Ġbutcher": 3289,
    "Ġwalls": 3290,
    "Ġextrem": 3291,
    "Ġsatisfied": 3292,
    "Ġhung": 3293,
    "Ġprivate": 3294,
    "ĠVolsces": 3295,
    "Ġidle": 3296,
    "Ġscarce": 3297,
    "Ġbenef": 3298,
    "True": 3299,
    "Ġneighb": 3300,
    "Ġlaugh": 3301,
    "Ġvengeance": 3302,
    "Ġabroad": 3303,
    "ĠJohn": 3304,
    "ĠLewis": 3305,
    "Ġview": 3306,
    "RATCLIFF": 3307,
    "Ne": 3308,
    "whe": 3309,
    "Ġwre": 3310,
    "Ġba": 3311,
    "rees": 3312,
    "enes": 3313,
    "have": 3314,
    "vell": 3315,
    "cell": 3316,
    "Ġcir": 3317,
    "riar": 3318,
    "Bid": 3319,
    "ident": 3320,
    "omas": 3321,
    "Ġrel": 3322,
    "gra": 3323,
    "Ġdeal": 3324,
    "Ġver": 3325,
    "Ġlest": 3326,
    "amp": 3327,
    "ĠRut": 3328,
    "orous": 3329,
    "ĠMant": 3330,
    "Fie": 3331,
    "Ġgod": 3332,
    "Ġhol": 3333,
    "ners": 3334,
    "allow": 3335,
    "Ġarri": 3336,
    "Ġunb": 3337,
    "ĠHer": 3338,
    "Ġsport": 3339,
    "ĠVin": 3340,
    "Ġmayst": 3341,
    "eless": 3342,
    "ope": 3343,
    "ISH": 3344,
    "IST": 3345,
    "Gentle": 3346,
    "Ġtruly": 3347,
    "Ġfaire": 3348,
    "Ġdism": 3349,
    "Off": 3350,
    "Ġfoes": 3351,
    "Ġroot": 3352,
    "Ġwherefore": 3353,
    "Ġease": 3354,
    "Ġflower": 3355,
    "Ġquite": 3356,
    "lock": 3357,
    "Ġimag": 3358,
    "Under": 3359,
    "shall": 3360,
    "vious": 3361,
    "Ġtrial": 3362,
    "Ġincl": 3363,
    "Ġconcl": 3364,
    "ailor": 3365,
    "Ġsmo": 3366,
    "Ġvile": 3367,
    "Ġcover": 3368,
    "Ġcorse": 3369,
    "rench": 3370,
    "Ġfellows": 3371,
    "Ġtrem": 3372,
    "Ġchanged": 3373,
    "Ġprovost": 3374,
    "Ġhumour": 3375,
    "Ġboot": 3376,
    "Ġswords": 3377,
    "Ġdeputy": 3378,
    "Ġcondition": 3379,
    "Never": 3380,
    "Ġformer": 3381,
    "Signior": 3382,
    "woman": 3383,
    "Ġwench": 3384,
    "change": 3385,
    "Ġshrew": 3386,
    "Ġreceived": 3387,
    "Ġtyrant": 3388,
    "After": 3389,
    "Ġacqu": 3390,
    "Ġfirm": 3391,
    "Ġevil": 3392,
    "BALT": 3393,
    "Ġeasy": 3394,
    "Whilst": 3395,
    "ĠBarn": 3396,
    "Ġconvey": 3397,
    "Ġschool": 3398,
    "Ġexcuse": 3399,
    "Ġfruit": 3400,
    "Ġjudgment": 3401,
    "ĠMercutio": 3402,
    "ANLEY": 3403,
    "ĠRutland": 3404,
    "ĠMantua": 3405,
    "ĠVincentio": 3406,
    "ISHOP": 3407,
    "TYBALT": 3408,
    "BISHOP": 3409,
    "ta": 3410,
    "ek": 3411,
    "AL": 3412,
    "'?": 3413,
    "Bl": 3414,
    "Ex": 3415,
    "pin": 3416,
    "his": 3417,
    "con": 3418,
    "Des": 3419,
    "oot": 3420,
    "Ġbeha": 3421,
    "Tut": 3422,
    "Put": 3423,
    "Ġmeat": 3424,
    "ead": 3425,
    "KEN": 3426,
    "shi": 3427,
    "Ġfain": 3428,
    "arden": 3429,
    "Ġspe": 3430,
    "Ġspake": 3431,
    "AND": 3432,
    "aste": 3433,
    "ract": 3434,
    "Ġshore": 3435,
    "Ġbrow": 3436,
    "Ġdust": 3437,
    "Ġblest": 3438,
    "ement": 3439,
    "roth": 3440,
    "Ġblind": 3441,
    "rate": 3442,
    "Ġunl": 3443,
    "vish": 3444,
    "Ġvice": 3445,
    "ĠWe": 3446,
    "Ġgown": 3447,
    "ĠAl": 3448,
    "enance": 3449,
    "Ġwither": 3450,
    "Ġgrown": 3451,
    "idings": 3452,
    "Ġknave": 3453,
    "ursed": 3454,
    "Ġleaves": 3455,
    "Ġtwice": 3456,
    "aff": 3457,
    "aper": 3458,
    "Ġdull": 3459,
    "ered": 3460,
    "Ġbite": 3461,
    "there": 3462,
    "Ġstab": 3463,
    "ĠMars": 3464,
    "Ġrepent": 3465,
    "rift": 3466,
    "ault": 3467,
    "Ġfeed": 3468,
    "Ġimport": 3469,
    "Ġwrongs": 3470,
    "Ġhonesty": 3471,
    "Ġburied": 3472,
    "cians": 3473,
    "ealous": 3474,
    "place": 3475,
    "Ġreasons": 3476,
    "Alack": 3477,
    "Ġsenate": 3478,
    "ilia": 3479,
    "Ġgreen": 3480,
    "Ġaffair": 3481,
    "Ġspring": 3482,
    "acher": 3483,
    "Ġprevent": 3484,
    "Ġchoice": 3485,
    "azed": 3486,
    "Ġjoint": 3487,
    "Ġpains": 3488,
    "Ġgift": 3489,
    "twixt": 3490,
    "Ġstoop": 3491,
    "Ġdivine": 3492,
    "ĠCorioli": 3493,
    "Ġsirrah": 3494,
    "Ġstop": 3495,
    "Methinks": 3496,
    "Ġtyran": 3497,
    "after": 3498,
    "Ġproof": 3499,
    "Ġwhilst": 3500,
    "Ġbrows": 3501,
    "Ġprophe": 3502,
    "OMAS": 3503,
    "erona": 3504,
    "Ġembrace": 3505,
    "Ġmalice": 3506,
    "Ġsacred": 3507,
    "Ġtaken": 3508,
    "anley": 3509,
    "Ġghost": 3510,
    "Ġfiery": 3511,
    "Ġinnocent": 3512,
    "ĠPaulina": 3513,
    "ĠPlantagenet": 3514,
    "Ġleng": 3515,
    "ominius": 3516,
    "ĠPrince": 3517,
    "Ġsafety": 3518,
    "Ġthunder": 3519,
    "Ġtraitors": 3520,
    "ĠCatesby": 3521,
    "Ġgirl": 3522,
    "Ġquestion": 3523,
    "ĠKeeper": 3524,
    "ĠAumerle": 3525,
    "KENBURY": 3526,
    "ĠCominius": 3527,
    "BRAKENBURY": 3528,
    "my": 3529,
    "op": 3530,
    "go": 3531,
    "mn": 3532,
    "Ad": 3533,
    "?'": 3534,
    "rehe": 3535,
    "cha": 3536,
    "Ind": 3537,
    "enen": 3538,
    "omer": 3539,
    "nat": 3540,
    "eld": 3541,
    "pet": 3542,
    "Ġed": 3543,
    "anch": 3544,
    "Ġele": 3545,
    "asc": 3546,
    "oly": 3547,
    "Ġdec": 3548,
    "more": 3549,
    "would": 3550,
    "Ġdoor": 3551,
    "Ġnose": 3552,
    "Ġallow": 3553,
    "ĠTo": 3554,
    "oard": 3555,
    "ellow": 3556,
    "DER": 3557,
    "ORY": 3558,
    "inous": 3559,
    "Ġknight": 3560,
    "Ġshr": 3561,
    "ardine": 3562,
    "Ġloath": 3563,
    "sic": 3564,
    "orry": 3565,
    "itol": 3566,
    "Ġfares": 3567,
    "Myself": 3568,
    "Ġuns": 3569,
    "think": 3570,
    "port": 3571,
    "Ġmayor": 3572,
    "elve": 3573,
    "Ġsail": 3574,
    "ONE": 3575,
    "Hence": 3576,
    "Once": 3577,
    "Ġround": 3578,
    "Ġfright": 3579,
    "icked": 3580,
    "Without": 3581,
    "ctise": 3582,
    "Ġrob": 3583,
    "Ġrock": 3584,
    "Ġwherein": 3585,
    "Ġwag": 3586,
    "Ġeag": 3587,
    "Ġdesign": 3588,
    "Ġwings": 3589,
    "Wherein": 3590,
    "aughters": 3591,
    "Ġcommend": 3592,
    "Ġprayer": 3593,
    "PETER": 3594,
    "Ġplead": 3595,
    "Ġtroth": 3596,
    "Edward": 3597,
    "Ġanger": 3598,
    "Ġrude": 3599,
    "edious": 3600,
    "Ġused": 3601,
    "Ġbark": 3602,
    "Richard": 3603,
    "Ġsubst": 3604,
    "Ġsmile": 3605,
    "Ġloyal": 3606,
    "RESS": 3607,
    "Ġsits": 3608,
    "Ġcares": 3609,
    "GREG": 3610,
    "Ġperceive": 3611,
    "Ġdrawn": 3612,
    "Ġempt": 3613,
    "Ġfury": 3614,
    "Ġassist": 3615,
    "Ġwanton": 3616,
    "unts": 3617,
    "Ġplague": 3618,
    "Ġtongues": 3619,
    "Ġtempt": 3620,
    "Ġinform": 3621,
    "Ġclaim": 3622,
    "Ġdeserve": 3623,
    "Ġgross": 3624,
    "unning": 3625,
    "VERD": 3626,
    "Ġavo": 3627,
    "Ġstones": 3628,
    "Ġdelight": 3629,
    "Ġnecess": 3630,
    "Ġcheek": 3631,
    "Ġabsence": 3632,
    "Ġdrop": 3633,
    "ollo": 3634,
    "Ġcreature": 3635,
    "draw": 3636,
    "Ġfinger": 3637,
    "Ġtrumpets": 3638,
    "Ġweeds": 3639,
    "Ġutter": 3640,
    "Ġcustom": 3641,
    "Ġlangu": 3642,
    "Ġoracle": 3643,
    "Ġignorant": 3644,
    "Ġadieu": 3645,
    "Ġalways": 3646,
    "Ġprevail": 3647,
    "Brother": 3648,
    "Ġhollow": 3649,
    "Ġrotten": 3650,
    "Ġremedy": 3651,
    "Ġimprison": 3652,
    "Ġcirc": 3653,
    "ĠThomas": 3654,
    "MIST": 3655,
    "Ġgarden": 3656,
    "Indeed": 3657,
    "enenius": 3658,
    "omerset": 3659,
    "DERBY": 3660,
    "ĠBarnardine": 3661,
    "hysic": 3662,
    "ĠCapitol": 3663,
    "Ġpractise": 3664,
    "GREGORY": 3665,
    "VERDONE": 3666,
    "MISTRESS": 3667,
    "ĠOVERDONE": 3668,
    "dy": 3669,
    "CH": 3670,
    "OX": 3671,
    "isa": 3672,
    "Ġcre": 3673,
    "Res": 3674,
    "Ġes": 3675,
    "ises": 3676,
    "esy": 3677,
    "Ġlar": 3678,
    "Ġhit": 3679,
    "what": 3680,
    "othe": 3681,
    "sing": 3682,
    "Ġbehe": 3683,
    "cend": 3684,
    "utes": 3685,
    "Ġaim": 3686,
    "iment": 3687,
    "Ġwent": 3688,
    "Ġstat": 3689,
    "Ġstar": 3690,
    "Ġhid": 3691,
    "Ġdur": 3692,
    "Ġdew": 3693,
    "hion": 3694,
    "thi": 3695,
    "Ġshar": 3696,
    "ione": 3697,
    "this": 3698,
    "ards": 3699,
    "yard": 3700,
    "hant": 3701,
    "Ġcell": 3702,
    "Ġpil": 3703,
    "act": 3704,
    "eous": 3705,
    "rious": 3706,
    "Ġconj": 3707,
    "ongs": 3708,
    "Dost": 3709,
    "Ġtherein": 3710,
    "Ġsheep": 3711,
    "ĠSic": 3712,
    "Ġcure": 3713,
    "Ġshouldst": 3714,
    "Ġoutward": 3715,
    "RICH": 3716,
    "ĠAp": 3717,
    "Ġwhole": 3718,
    "Ġoffend": 3719,
    "ĠYour": 3720,
    "Ġalas": 3721,
    "Ġheav": 3722,
    "Ġearn": 3723,
    "eeth": 3724,
    "ĠWhere": 3725,
    "Turn": 3726,
    "itting": 3727,
    "Ġmeaning": 3728,
    "aced": 3729,
    "Ġproper": 3730,
    "Ġchief": 3731,
    "OMER": 3732,
    "loved": 3733,
    "haps": 3734,
    "Ġloud": 3735,
    "Ġruin": 3736,
    "ission": 3737,
    "Ġresign": 3738,
    "Ġwont": 3739,
    "Ġtune": 3740,
    "Ġfollows": 3741,
    "Ġbegins": 3742,
    "ethought": 3743,
    "Ġship": 3744,
    "Ġtread": 3745,
    "Ġsteed": 3746,
    "Ġpassing": 3747,
    "Ġwoful": 3748,
    "Ġdevise": 3749,
    "Ġcarry": 3750,
    "Ġsens": 3751,
    "FORD": 3752,
    "Ġfollowers": 3753,
    "Ġreceive": 3754,
    "Ġfools": 3755,
    "Ġpair": 3756,
    "Ġmaids": 3757,
    "ĠJove": 3758,
    "ERIA": 3759,
    "Show": 3760,
    "Ġadvise": 3761,
    "Ġgives": 3762,
    "Ġrememb": 3763,
    "Ġawake": 3764,
    "usician": 3765,
    "Ġborne": 3766,
    "Ġsupper": 3767,
    "Ġlamb": 3768,
    "Ġcondu": 3769,
    "aze": 3770,
    "Ġsilence": 3771,
    "Having": 3772,
    "Ġpossible": 3773,
    "Ġnumber": 3774,
    "Ġprofess": 3775,
    "Ġdespite": 3776,
    "MOND": 3777,
    "Ġbanished": 3778,
    "Ġwives": 3779,
    "Ġdeceived": 3780,
    "Ġgarments": 3781,
    "Ġthrust": 3782,
    "Ġcastle": 3783,
    "Ġcries": 3784,
    "Ġthrive": 3785,
    "Ġexpress": 3786,
    "Ġundone": 3787,
    "Ġdreadful": 3788,
    "Art": 3789,
    "Ġaught": 3790,
    "Ġbabe": 3791,
    "Ġprotect": 3792,
    "Ġvantage": 3793,
    "Besides": 3794,
    "Ġbroken": 3795,
    "Ġviolent": 3796,
    "ĠChristian": 3797,
    "Poor": 3798,
    "ĠGrey": 3799,
    "Ġpubl": 3800,
    "ursday": 3801,
    "Ġnobles": 3802,
    "Into": 3803,
    "Ġbelly": 3804,
    "Ġoccasion": 3805,
    "Ġdeposed": 3806,
    "Ġfatal": 3807,
    "Ġbecomes": 3808,
    "Ġauthority": 3809,
    "Ġsimple": 3810,
    "onounce": 3811,
    "Ġthroat": 3812,
    "Ġfarther": 3813,
    "Ġasleep": 3814,
    "Ġbenefit": 3815,
    "VAL": 3816,
    "pinion": 3817,
    "Ġtidings": 3818,
    "Ġjealous": 3819,
    "Ġaffairs": 3820,
    "Ġtreacher": 3821,
    "ĠVerona": 3822,
    "Ġrasc": 3823,
    "Ġwicked": 3824,
    "Ġtedious": 3825,
    "ĠSomerset": 3826,
    "mione": 3827,
    "OMERSET": 3828,
    "OXFORD": 3829,
    "RICHMOND": 3830,
    "VALERIA": 3831,
    "SOMERSET": 3832,
    "pr": 3833,
    "fl": 3834,
    "ub": 3835,
    "eg": 3836,
    "MA": 3837,
    "Sc": 3838,
    "HY": 3839,
    "Ġer": 3840,
    "Per": 3841,
    "ron": 3842,
    "son": 3843,
    "ene": 3844,
    "enn": 3845,
    "Ġtop": 3846,
    "Ġpin": 3847,
    "cing": 3848,
    "ping": 3849,
    "Ġsan": 3850,
    "oat": 3851,
    "gle": 3852,
    "ldom": 3853,
    "iron": 3854,
    "Ġdet": 3855,
    "eding": 3856,
    "arch": 3857,
    "ills": 3858,
    "rand": 3859,
    "Ġlip": 3860,
    "Ġcal": 3861,
    "Ġstore": 3862,
    "room": 3863,
    "Ġgain": 3864,
    "eave": 3865,
    "Ġcam": 3866,
    "Ġband": 3867,
    "BUS": 3868,
    "Ġseas": 3869,
    "Ġsup": 3870,
    "run": 3871,
    "usion": 3872,
    "Ġange": 3873,
    "Ġlod": 3874,
    "ello": 3875,
    "hop": 3876,
    "Ġvan": 3877,
    "Hast": 3878,
    "ouses": 3879,
    "Ġweight": 3880,
    "Ġshut": 3881,
    "Ġequ": 3882,
    "Ġwine": 3883,
    "Ġnine": 3884,
    "Ġlend": 3885,
    "Ġspend": 3886,
    "ared": 3887,
    "Ġdeare": 3888,
    "LIUS": 3889,
    "Ġstep": 3890,
    "father": 3891,
    "iffe": 3892,
    "Ġbond": 3893,
    "iond": 3894,
    "Ġsway": 3895,
    "app": 3896,
    "Ġkingly": 3897,
    "enture": 3898,
    "Ġtort": 3899,
    "Ġquit": 3900,
    "Ġbrook": 3901,
    "Great": 3902,
    "Ġdue": 3903,
    "ĠPol": 3904,
    "imely": 3905,
    "ustice": 3906,
    "Ġdisd": 3907,
    "Ġroom": 3908,
    "Ġgage": 3909,
    "Ġflight": 3910,
    "erved": 3911,
    "Ġweap": 3912,
    "utation": 3913,
    "Ġparts": 3914,
    "Ġprey": 3915,
    "Ġperil": 3916,
    "Ġperish": 3917,
    "ĠThere": 3918,
    "iteous": 3919,
    "Ġwhither": 3920,
    "swain": 3921,
    "Ġuntil": 3922,
    "Ġlean": 3923,
    "orses": 3924,
    "Ġkeeps": 3925,
    "Ġaccus": 3926,
    "Ġdesert": 3927,
    "Ġchair": 3928,
    "Ġexile": 3929,
    "Ġsix": 3930,
    "Ġpleased": 3931,
    "ĠHarry": 3932,
    "Ġstock": 3933,
    "ABHOR": 3934,
    "ounty": 3935,
    "Ġtrans": 3936,
    "Ġcurst": 3937,
    "ploy": 3938,
    "Ġinfect": 3939,
    "Ġaffect": 3940,
    "Ġspirits": 3941,
    "Two": 3942,
    "Ġintend": 3943,
    "Very": 3944,
    "Ġdenied": 3945,
    "ancy": 3946,
    "Ġbelike": 3947,
    "Tybalt": 3948,
    "Ġbetwixt": 3949,
    "Ġsilver": 3950,
    "Ġlegs": 3951,
    "ĠMOW": 3952,
    "Ġdelay": 3953,
    "Ġresolve": 3954,
    "Ġhumbly": 3955,
    "MOP": 3956,
    "Ġwander": 3957,
    "Ġstuff": 3958,
    "Ġrash": 3959,
    "ĠBona": 3960,
    "Ġsighs": 3961,
    "Ġhurt": 3962,
    "BRAY": 3963,
    "Ġcolour": 3964,
    "Ġadvantage": 3965,
    "Ġpursu": 3966,
    "Ġowe": 3967,
    "Ġclear": 3968,
    "Ġrenown": 3969,
    "Ġprepared": 3970,
    "Ġdamned": 3971,
    "Ġprize": 3972,
    "Ġwedding": 3973,
    "Ġshadow": 3974,
    "Ġpleasant": 3975,
    "Ġnames": 3976,
    "Ġpawn": 3977,
    "Ġforsworn": 3978,
    "Ġdisposition": 3979,
    "Ġstorm": 3980,
    "Death": 3981,
    "Ġconquer": 3982,
    "Ġthreaten": 3983,
    "ĠCaius": 3984,
    "Ġpunish": 3985,
    "itude": 3986,
    "Ġcontrary": 3987,
    "EXETER": 3988,
    "Ġpalace": 3989,
    "Ġdinner": 3990,
    "Ġmiserable": 3991,
    "Ġneighbour": 3992,
    "ixenes": 3993,
    "Ġexcell": 3994,
    "ĠFriar": 3995,
    "Ġenvious": 3996,
    "Tailor": 3997,
    "Ġgentlewoman": 3998,
    "STANLEY": 3999,
    "Ġspeci": 4000,
    "Ġtaste": 4001,
    "Ġcountenance": 4002,
    "Ġpaper": 4003,
    "THOMAS": 4004,
    "Ġunnat": 4005,
    "Ġsorry": 4006,
    "Ġtwelve": 4007,
    "Ġempty": 4008,
    "Ġcunning": 4009,
    "ĠMenenius": 4010,
    "Ġphysic": 4011,
    "Ġcourtesy": 4012,
    "Ġbeheld": 4013,
    "ĠMusician": 4014,
    "ĠThursday": 4015,
    "MAMIL": 4016,
    "Ġsanct": 4017,
    "BUSHY": 4018,
    "iondello": 4019,
    "ABHORSON": 4020,
    "MOPSA": 4021,
    "ĠMOWBRAY": 4022,
    "MAMILLIUS": 4023,
    "we": 4024,
    "oc": 4025,
    "Ed": 4026,
    "CY": 4027,
    "Pre": 4028,
    "Sha": 4029,
    "hor": 4030,
    "Ġdi": 4031,
    "par": 4032,
    "lar": 4033,
    "erve": 4034,
    "ote": 4035,
    "Ġwot": 4036,
    "bow": 4037,
    "ising": 4038,
    "ane": 4039,
    "can": 4040,
    "Ġbew": 4041,
    "Ġfle": 4042,
    "irg": 4043,
    "Ret": 4044,
    "Ġheed": 4045,
    "Ġtut": 4046,
    "Ġmend": 4047,
    "oke": 4048,
    "rib": 4049,
    "Ġbas": 4050,
    "Ġfas": 4051,
    "Ġones": 4052,
    "hore": 4053,
    "Ġfro": 4054,
    "Ġwood": 4055,
    "amed": 4056,
    "Ġseest": 4057,
    "ruly": 4058,
    "thou": 4059,
    "Ġfail": 4060,
    "Right": 4061,
    "que": 4062,
    "sequ": 4063,
    "None": 4064,
    "Ġamb": 4065,
    "Ġamen": 4066,
    "icion": 4067,
    "Rem": 4068,
    "Ġspare": 4069,
    "outs": 4070,
    "Ġwol": 4071,
    "oler": 4072,
    "ept": 4073,
    "Rep": 4074,
    "Ġwond": 4075,
    "yond": 4076,
    "Ġgate": 4077,
    "Ġtheirs": 4078,
    "Ġball": 4079,
    "Ġarg": 4080,
    "Ġpure": 4081,
    "Ġport": 4082,
    "ourish": 4083,
    "cian": 4084,
    "cio": 4085,
    "Ġseeing": 4086,
    "mity": 4087,
    "ĠPro": 4088,
    "ĠPER": 4089,
    "umble": 4090,
    "Ġplot": 4091,
    "igence": 4092,
    "Ġreward": 4093,
    "Ġdign": 4094,
    "urance": 4095,
    "Ġdies": 4096,
    "born": 4097,
    "Ġdiss": 4098,
    "Ġgoodness": 4099,
    "wise": 4100,
    "Ġdag": 4101,
    "rease": 4102,
    "Ġslow": 4103,
    "Ġweigh": 4104,
    "Ġfee": 4105,
    "Three": 4106,
    "Ġcomple": 4107,
    "Ġado": 4108,
    "pass": 4109,
    "ĠDid": 4110,
    "Ġwrath": 4111,
    "Ġhatred": 4112,
    "ĠWhen": 4113,
    "Ġtable": 4114,
    "ĠFl": 4115,
    "lesome": 4116,
    "Thanks": 4117,
    "Ġcrowns": 4118,
    "Ġmiss": 4119,
    "Ġhark": 4120,
    "Ġcourage": 4121,
    "Ġwits": 4122,
    "Ġfolly": 4123,
    "Ġaccess": 4124,
    "Only": 4125,
    "Ġbud": 4126,
    "Ġendure": 4127,
    "Ġends": 4128,
    "Ġneedful": 4129,
    "Still": 4130,
    "Cousin": 4131,
    "Ġbodies": 4132,
    "Ġjoyful": 4133,
    "Ġjoys": 4134,
    "Ġdebt": 4135,
    "Ġmistake": 4136,
    "Ġstory": 4137,
    "Ġhappiness": 4138,
    "Ġcens": 4139,
    "Ġchide": 4140,
    "Ġmurderer": 4141,
    "Ġadvance": 4142,
    "Ġexpect": 4143,
    "Ġperfect": 4144,
    "Ġpersu": 4145,
    "Ġcrack": 4146,
    "ĠPeter": 4147,
    "Ġintent": 4148,
    "Ġsometime": 4149,
    "Ġmisery": 4150,
    "Ġaccuse": 4151,
    "Ġyonder": 4152,
    "Ġcup": 4153,
    "Ġspoken": 4154,
    "Ġwounded": 4155,
    "Ġdrum": 4156,
    "Ġmarket": 4157,
    "ĠMessenger": 4158,
    "Widow": 4159,
    "Ġfortunes": 4160,
    "cape": 4161,
    "Ġwaters": 4162,
    "Ġremains": 4163,
    "Ġmaking": 4164,
    "Ġcursed": 4165,
    "Ġinstruct": 4166,
    "Ġinstrument": 4167,
    "Ġscept": 4168,
    "ĠNap": 4169,
    "ĠRivers": 4170,
    "Ġcalm": 4171,
    "Ġresolved": 4172,
    "Know": 4173,
    "Ġquench": 4174,
    "Ġwhiles": 4175,
    "chance": 4176,
    "grace": 4177,
    "ney": 4178,
    "Ġgriev": 4179,
    "Ġcurses": 4180,
    "Ġaccept": 4181,
    "Ġhopes": 4182,
    "Ġgroan": 4183,
    "ASAR": 4184,
    "Ġattempt": 4185,
    "Ġpainted": 4186,
    "BALTH": 4187,
    "Ġpenit": 4188,
    "Ġmotion": 4189,
    "Ġprotest": 4190,
    "Ġcolours": 4191,
    "ency": 4192,
    "Ġprinces": 4193,
    "Ġprincess": 4194,
    "Ġburthen": 4195,
    "Ġnaked": 4196,
    "Ġnatural": 4197,
    "Ġterror": 4198,
    "kedom": 4199,
    "Ġcorrupt": 4200,
    "Ġgovernment": 4201,
    "Ġsenators": 4202,
    "Prithee": 4203,
    "Ġpetition": 4204,
    "Ġsusp": 4205,
    "Ġdiscontent": 4206,
    "Ġobedience": 4207,
    "Believe": 4208,
    "Ġcontinue": 4209,
    "Ġmourn": 4210,
    "Ġseveral": 4211,
    "Ġundertake": 4212,
    "Nothing": 4213,
    "Ġcredit": 4214,
    "hearted": 4215,
    "Ġwreck": 4216,
    "clock": 4217,
    "ĠStanley": 4218,
    "Ġsolemn": 4219,
    "Ġperpet": 4220,
    "Ġdaughters": 4221,
    "Ġlanguage": 4222,
    "Ġcircum": 4223,
    "ARCH": 4224,
    "ĠPisa": 4225,
    "Ġdurst": 4226,
    "urious": 4227,
    "Ġbeloved": 4228,
    "Ġremembrance": 4229,
    "Ġpublic": 4230,
    "Ġpronounce": 4231,
    "Ġopinion": 4232,
    "Ġpiteous": 4233,
    "Ġemploy": 4234,
    "ĠPolixenes": 4235,
    "Ġunnatural": 4236,
    "ĠBiondello": 4237,
    "ĠPERCY": 4238,
    "Ġassurance": 4239,
    "BALTHASAR": 4240,
    "Ġdukedom": 4241,
    "do": 4242,
    "sa": 4243,
    "ex": 4244,
    "oe": 4245,
    "Ar": 4246,
    "yr": 4247,
    "SS": 4248,
    "erd": 4249,
    "fer": 4250,
    "ita": 4251,
    "Ġod": 4252,
    "how": 4253,
    "omp": 4254,
    "omen": 4255,
    "Ġmat": 4256,
    "Ġhaz": 4257,
    "ped": 4258,
    "Ġled": 4259,
    "uted": 4260,
    "Ġmere": 4261,
    "Ġisle": 4262,
    "Ġits": 4263,
    "Ġkin": 4264,
    "val": 4265,
    "pro": 4266,
    "Ġtest": 4267,
    "uses": 4268,
    "Bear": 4269,
    "bear": 4270,
    "ĠCan": 4271,
    "ĠCal": 4272,
    "ĠRO": 4273,
    "Ġeast": 4274,
    "Might": 4275,
    "ants": 4276,
    "just": 4277,
    "Ġcomest": 4278,
    "ĠEl": 4279,
    "lic": 4280,
    "atic": 4281,
    "Ġconc": 4282,
    "ĠGood": 4283,
    "Ġbare": 4284,
    "arent": 4285,
    "Ġpol": 4286,
    "Ġhost": 4287,
    "Post": 4288,
    "gers": 4289,
    "Father": 4290,
    "App": 4291,
    "?--": 4292,
    "ĠSo": 4293,
    "ĠBl": 4294,
    "Ġunha": 4295,
    "Ġsink": 4296,
    "Ġfame": 4297,
    "same": 4298,
    "elt": 4299,
    "Ġqual": 4300,
    "Ġjour": 4301,
    "akest": 4302,
    "Young": 4303,
    "ument": 4304,
    "Ġfathers": 4305,
    "Ġrepe": 4306,
    "ipe": 4307,
    "Ġshape": 4308,
    "time": 4309,
    "idence": 4310,
    "ĠWho": 4311,
    "Those": 4312,
    "Ġshun": 4313,
    "Ġring": 4314,
    "OLK": 4315,
    "CAS": 4316,
    "aries": 4317,
    "ĠYet": 4318,
    "Ġalter": 4319,
    "Ġlooking": 4320,
    "Ġmag": 4321,
    "ourage": 4322,
    "Page": 4323,
    "Ġfriendly": 4324,
    "Ġbrings": 4325,
    "Save": 4326,
    "Ġslay": 4327,
    "Ġflies": 4328,
    "ĠTake": 4329,
    "ieved": 4330,
    "oved": 4331,
    "Ġfairly": 4332,
    "Ġpartic": 4333,
    "Ġclo": 4334,
    "Ġways": 4335,
    "aintain": 4336,
    "Ġwrite": 4337,
    "Ġspite": 4338,
    "they": 4339,
    "Ġkey": 4340,
    "Ġwhore": 4341,
    "Ġarmour": 4342,
    "ctions": 4343,
    "ression": 4344,
    "Ġisland": 4345,
    "Ġimm": 4346,
    "Ġrule": 4347,
    "ĠNay": 4348,
    "Ġnought": 4349,
    "ified": 4350,
    "ences": 4351,
    "Ġfaces": 4352,
    "Ġslept": 4353,
    "Ġaccord": 4354,
    "Mark": 4355,
    "Ġcompass": 4356,
    "Ġsins": 4357,
    "Ġmile": 4358,
    "Ġcock": 4359,
    "orset": 4360,
    "Ġseeming": 4361,
    "Ġbrain": 4362,
    "ĠThey": 4363,
    "Ġpassage": 4364,
    "uary": 4365,
    "Ġblock": 4366,
    "Ġrepair": 4367,
    "Ġmaiden": 4368,
    "Ġhateful": 4369,
    "Love": 4370,
    "Ġstrew": 4371,
    "Ġturns": 4372,
    "olute": 4373,
    "uteous": 4374,
    "atience": 4375,
    "Ġinstant": 4376,
    "Ġtrade": 4377,
    "Ġboar": 4378,
    "Ġwants": 4379,
    "Ġodd": 4380,
    "NORF": 4381,
    "Ġcommanded": 4382,
    "Ġhanging": 4383,
    "Ġcontented": 4384,
    "Ġdares": 4385,
    "Ġgrey": 4386,
    "Ġhunt": 4387,
    "Ġfreely": 4388,
    "Ġadvers": 4389,
    "Ġservices": 4390,
    "Ġtemper": 4391,
    "Ġobs": 4392,
    "Ġdrums": 4393,
    "vours": 4394,
    "Ġgrows": 4395,
    "Ġdeserves": 4396,
    "Ġblush": 4397,
    "noon": 4398,
    "Ġgranted": 4399,
    "Ġterms": 4400,
    "Comm": 4401,
    "Ġleads": 4402,
    "Ġrealm": 4403,
    "Ġresolution": 4404,
    "Ġshortly": 4405,
    "Ġvex": 4406,
    "Ġpraise": 4407,
    "Ġabsent": 4408,
    "Ġvenom": 4409,
    "Ġdrops": 4410,
    "Ġpowers": 4411,
    "Ġprivile": 4412,
    "Ġrespected": 4413,
    "Ġframe": 4414,
    "Ġtomb": 4415,
    "Beseech": 4416,
    "Ġapproach": 4417,
    "Ġcomplain": 4418,
    "Ġcholer": 4419,
    "Ġtorment": 4420,
    "Ġdiscover": 4421,
    "Ġimposs": 4422,
    "Ġunknown": 4423,
    "strous": 4424,
    "Ġseize": 4425,
    "Ġprosperous": 4426,
    "Ġbott": 4427,
    "Ġcease": 4428,
    "Ġapparel": 4429,
    "Ġreverend": 4430,
    "Ġcaptain": 4431,
    "Ġdegree": 4432,
    "Heaven": 4433,
    "Ġglorious": 4434,
    "Ġmanners": 4435,
    "Ġswallow": 4436,
    "Ġscope": 4437,
    "Ġsmooth": 4438,
    "ĠFrench": 4439,
    "Ġcontract": 4440,
    "Ġvault": 4441,
    "Ġhereafter": 4442,
    "Ġapprehe": 4443,
    "Ġpurcha": 4444,
    "Ġlarge": 4445,
    "Ġsharp": 4446,
    "Ġearnest": 4447,
    "Ġteeth": 4448,
    "ĠHermione": 4449,
    "Ġscene": 4450,
    "Boat": 4451,
    "Ġcamest": 4452,
    "ishop": 4453,
    "Ġhouses": 4454,
    "Ġuntimely": 4455,
    "Ġdisdain": 4456,
    "Ġhorses": 4457,
    "Ġexcellent": 4458,
    "AEd": 4459,
    "Ġvirg": 4460,
    "Ġbeyond": 4461,
    "ĠLucio": 4462,
    "Ġenmity": 4463,
    "Ġdagger": 4464,
    "Ġincrease": 4465,
    "Ġsceptre": 4466,
    "ĠNaples": 4467,
    "Ġsuspicion": 4468,
    "Ġodds": 4469,
    "ĠROSS": 4470,
    "DORCAS": 4471,
    "NORFOLK": 4472,
    "Boatswain": 4473,
    "gl": 4474,
    "GH": 4475,
    "RR": 4476,
    "SO": 4477,
    "kin": 4478,
    "iny": 4479,
    "reg": 4480,
    "dis": 4481,
    "Ġmor": 4482,
    "ker": 4483,
    "Ġda": 4484,
    "gar": 4485,
    "Ġchat": 4486,
    "ĠIre": 4487,
    "hest": 4488,
    "Ġbef": 4489,
    "uce": 4490,
    "Set": 4491,
    "Ġmill": 4492,
    "ades": 4493,
    "bri": 4494,
    "Has": 4495,
    "Ġrej": 4496,
    "DIN": 4497,
    "rain": 4498,
    "Ġlion": 4499,
    "ales": 4500,
    "Ġwilling": 4501,
    "itus": 4502,
    "andal": 4503,
    "Ġsuck": 4504,
    "Ġsull": 4505,
    "Ġbeard": 4506,
    "Dear": 4507,
    "Ġspr": 4508,
    "Ġspur": 4509,
    "ĠCo": 4510,
    "ĠRom": 4511,
    "FER": 4512,
    "pul": 4513,
    "Ġmeant": 4514,
    "Ġsqu": 4515,
    "aline": 4516,
    "Ġcomb": 4517,
    "ĠMay": 4518,
    "ĠMil": 4519,
    "Ġconce": 4520,
    "Ġable": 4521,
    "Long": 4522,
    "iven": 4523,
    "Ġstol": 4524,
    "Ġweather": 4525,
    "iate": 4526,
    "Ġlovely": 4527,
    "Ġswell": 4528,
    "pping": 4529,
    "ĠST": 4530,
    "ĠBe": 4531,
    "ĠBer": 4532,
    "Ġdig": 4533,
    "Ġfig": 4534,
    "Ġworn": 4535,
    "Ġtame": 4536,
    "Came": 4537,
    "Ġmuster": 4538,
    "Ġwept": 4539,
    "ĠAd": 4540,
    "Ġthorn": 4541,
    "Boy": 4542,
    "Ġroar": 4543,
    "Ġtells": 4544,
    "Ġfurn": 4545,
    "Ġhasty": 4546,
    "Ġfears": 4547,
    "Ġtaught": 4548,
    "ember": 4549,
    "Ġtap": 4550,
    "Ġgreatest": 4551,
    "ination": 4552,
    "Ġtide": 4553,
    "Ġadver": 4554,
    "Ġclam": 4555,
    "ĠDo": 4556,
    "Ġperj": 4557,
    "wife": 4558,
    "Ġknife": 4559,
    "law": 4560,
    "Ġnorth": 4561,
    "Ġpress": 4562,
    "isper": 4563,
    "Ġdisper": 4564,
    "Ġrap": 4565,
    "Ġraise": 4566,
    "Wilt": 4567,
    "love": 4568,
    "Ġdress": 4569,
    "Ġbegun": 4570,
    "Ġunless": 4571,
    "reme": 4572,
    "forth": 4573,
    "Ġcatch": 4574,
    "ĠJack": 4575,
    "Ġvows": 4576,
    "Ġpeers": 4577,
    "Ġwrought": 4578,
    "Ġwitch": 4579,
    "ĠRos": 4580,
    "aces": 4581,
    "ances": 4582,
    "fret": 4583,
    "oldier": 4584,
    "Ġjew": 4585,
    "Ġlark": 4586,
    "Ġkindly": 4587,
    "Ġcompan": 4588,
    "atcl": 4589,
    "Ġseason": 4590,
    "ĠPray": 4591,
    "Ġcounty": 4592,
    "Amen": 4593,
    "Ġfinds": 4594,
    "Help": 4595,
    "Stri": 4596,
    "Ġruth": 4597,
    "Ġbraw": 4598,
    "Ġcharged": 4599,
    "Ġbird": 4600,
    "Ġpassion": 4601,
    "Ġnobl": 4602,
    "Ġholds": 4603,
    "GREEN": 4604,
    "Clarence": 4605,
    "Cons": 4606,
    "ĠCons": 4607,
    "Ġpatri": 4608,
    "Ġbuild": 4609,
    "Ġsoundly": 4610,
    "Ġserves": 4611,
    "Ġadvice": 4612,
    "Ġbury": 4613,
    "Ġsends": 4614,
    "Ġrevenged": 4615,
    "Ġwhereof": 4616,
    "Ġgiving": 4617,
    "Ġwinds": 4618,
    "Ġhanged": 4619,
    "Ġdarest": 4620,
    "Ġrecom": 4621,
    "Ġintell": 4622,
    "Ġwarlike": 4623,
    "Ġmessenger": 4624,
    "ĠTherefore": 4625,
    "Ġafford": 4626,
    "ĠFarewell": 4627,
    "Ġstreets": 4628,
    "Ġsouth": 4629,
    "ALON": 4630,
    "Whither": 4631,
    "Roman": 4632,
    "Ġassured": 4633,
    "Ġhardly": 4634,
    "Ġprovo": 4635,
    "Ġprofit": 4636,
    "Ġparli": 4637,
    "Ġrecord": 4638,
    "Ġnobly": 4639,
    "Ġveins": 4640,
    "Ġwaste": 4641,
    "Until": 4642,
    "Ġpieces": 4643,
    "Ġwait": 4644,
    "Ġgarland": 4645,
    "Ġgrieve": 4646,
    "Ġsky": 4647,
    "Ġforbear": 4648,
    "Ġgroans": 4649,
    "Ġdirect": 4650,
    "Ġaccused": 4651,
    "Ġboots": 4652,
    "Ġthrice": 4653,
    "erns": 4654,
    "Ġestate": 4655,
    "Ġoppos": 4656,
    "Ġcommitted": 4657,
    "Ghost": 4658,
    "Ġwillingly": 4659,
    "About": 4660,
    "Ġurged": 4661,
    "Ġperforce": 4662,
    "Ġaffections": 4663,
    "Ġhaply": 4664,
    "Ġfamous": 4665,
    "Ġrevol": 4666,
    "Ġrogue": 4667,
    "Ġconsider": 4668,
    "Ġsmiles": 4669,
    "Supp": 4670,
    "Ġconceit": 4671,
    "DORSET": 4672,
    "Ġlusty": 4673,
    "Please": 4674,
    "Mistress": 4675,
    "Ġelder": 4676,
    "Ġcurrent": 4677,
    "Ġstudy": 4678,
    "Ġconstant": 4679,
    "Ġsupposed": 4680,
    "Ġcounterfeit": 4681,
    "Ġdestroy": 4682,
    "Ġthief": 4683,
    "Worthy": 4684,
    "Ġstamp": 4685,
    "Ġarrived": 4686,
    "Gentlemen": 4687,
    "Ġbehalf": 4688,
    "ĠMarshal": 4689,
    "Ġamazed": 4690,
    "Ġbethink": 4691,
    "untsman": 4692,
    "Ġavoid": 4693,
    "Ġimprisonment": 4694,
    "Ġworthi": 4695,
    "ĠApollo": 4696,
    "Ġconduct": 4697,
    "Ġprotector": 4698,
    "Ġtreacherous": 4699,
    "Ġrascal": 4700,
    "Ġspecial": 4701,
    "Ġabhor": 4702,
    "Ġgrievous": 4703,
    "Ġperpetual": 4704,
    "Ġparent": 4705,
    "Ġjourney": 4706,
    "Ġparticular": 4707,
    "Ġsanctuary": 4708,
    "AEdile": 4709,
    "Ġvirgin": 4710,
    "RREL": 4711,
    "Ġdaily": 4712,
    "ĠIreland": 4713,
    "DINAND": 4714,
    "ĠRomans": 4715,
    "ĠPomfret": 4716,
    "atcliff": 4717,
    "ĠConspir": 4718,
    "ALONSO": 4719,
    "Ġparliament": 4720,
    "TYRREL": 4721,
    "FERDINAND": 4722,
    "ib": 4723,
    "zz": 4724,
    "Ġz": 4725,
    "Ġsy": 4726,
    "sha": 4727,
    "Ġfi": 4728,
    "ser": 4729,
    "des": 4730,
    "reen": 4731,
    "Ġlin": 4732,
    "arm": 4733,
    "esar": 4734,
    "Ġhor": 4735,
    "Ġpi": 4736,
    "vet": 4737,
    "Ġpot": 4738,
    "Ġdow": 4739,
    "Ġing": 4740,
    "Ġwing": 4741,
    "eat": 4742,
    "ater": 4743,
    "sell": 4744,
    "cei": 4745,
    "eder": 4746,
    "uten": 4747,
    "Ġmel": 4748,
    "Ġdim": 4749,
    "Ġach": 4750,
    "Ġfors": 4751,
    "ourse": 4752,
    "Ġcher": 4753,
    "aded": 4754,
    "adv": 4755,
    "Ġdri": 4756,
    "Ġsting": 4757,
    "some": 4758,
    "rac": 4759,
    "Ġsal": 4760,
    "nal": 4761,
    "alis": 4762,
    "Ġsore": 4763,
    "Ġstro": 4764,
    "roll": 4765,
    "Ġfood": 4766,
    "rick": 4767,
    "Ġreck": 4768,
    "ested": 4769,
    "fess": 4770,
    "amb": 4771,
    "ams": 4772,
    "aming": 4773,
    "alus": 4774,
    "Ġsees": 4775,
    "Ġsue": 4776,
    "ourth": 4777,
    "ellion": 4778,
    "wear": 4779,
    "Ġsple": 4780,
    "Ġves": 4781,
    "Ġinqu": 4782,
    "arts": 4783,
    "Ġfrow": 4784,
    "nty": 4785,
    "ĠEx": 4786,
    "icy": 4787,
    "Ġhie": 4788,
    "ative": 4789,
    "ĠGive": 4790,
    "ares": 4791,
    "Ġstout": 4792,
    "Ġsooth": 4793,
    "ĠLe": 4794,
    "Ġconfe": 4795,
    "Ġyond": 4796,
    "ulate": 4797,
    "Ġsaying": 4798,
    "ipp": 4799,
    ";--": 4800,
    "dig": 4801,
    "cure": 4802,
    "LIS": 4803,
    "Ġpound": 4804,
    "Ġgraves": 4805,
    "onci": 4806,
    "erity": 4807,
    "ilence": 4808,
    "ĠWell": 4809,
    "Ġfun": 4810,
    "deem": 4811,
    "upt": 4812,
    "Ġapt": 4813,
    "ĠAll": 4814,
    "ties": 4815,
    "irect": 4816,
    "Ġsire": 4817,
    "harge": 4818,
    "Ġalack": 4819,
    "Noble": 4820,
    "Ġrose": 4821,
    "Ġfeet": 4822,
    "ages": 4823,
    "Ġpurse": 4824,
    "ĠAway": 4825,
    "Ġflood": 4826,
    "Ġtwain": 4827,
    "Ġcaught": 4828,
    "Acc": 4829,
    "Ġnewly": 4830,
    "master": 4831,
    "itation": 4832,
    "Ġpartly": 4833,
    "Ġparting": 4834,
    "Ġwide": 4835,
    "Ġabide": 4836,
    "Ġcalled": 4837,
    "Ġstanding": 4838,
    "Ġclim": 4839,
    "ĠDe": 4840,
    "ĠDer": 4841,
    "ullus": 4842,
    "Ġwrink": 4843,
    "Ġbearing": 4844,
    "aints": 4845,
    "ĠThen": 4846,
    "etite": 4847,
    "Ġrare": 4848,
    "thee": 4849,
    "ruction": 4850,
    "tled": 4851,
    "Ġimage": 4852,
    "Ġruled": 4853,
    "Ġrust": 4854,
    "ercy": 4855,
    "ĠMarian": 4856,
    "Ġsets": 4857,
    "osing": 4858,
    "Ġresist": 4859,
    "Soft": 4860,
    "Ġstret": 4861,
    "ierce": 4862,
    "Ġtrick": 4863,
    "Makes": 4864,
    "Ġmult": 4865,
    "Ġputs": 4866,
    "Ġpowerful": 4867,
    "Ġchase": 4868,
    "clam": 4869,
    "Ġnail": 4870,
    "Ġsmell": 4871,
    "Ġbetray": 4872,
    "erer": 4873,
    "earer": 4874,
    "Ġbrace": 4875,
    "Ġwhip": 4876,
    "Ġthird": 4877,
    "iety": 4878,
    "Ġmelt": 4879,
    "Ġnative": 4880,
    "Ġstroke": 4881,
    "Ġboys": 4882,
    "Ġweeps": 4883,
    "Ġcommons": 4884,
    "Ġtreasure": 4885,
    "Ġbetimes": 4886,
    "Ġbelow": 4887,
    "Lords": 4888,
    "Ġcere": 4889,
    "Ġbade": 4890,
    "Ġhousehold": 4891,
    "Ġsovereig": 4892,
    "Ġappeal": 4893,
    "Ġassure": 4894,
    "vior": 4895,
    "Ġalike": 4896,
    "Ġsecure": 4897,
    "Twere": 4898,
    "Ġblunt": 4899,
    "Ġaunt": 4900,
    "Ġsometimes": 4901,
    "Ġflatt": 4902,
    "Ġoaths": 4903,
    "Ġmerit": 4904,
    "upon": 4905,
    "Ġfaithful": 4906,
    "Ġdefence": 4907,
    "Ġaffli": 4908,
    "Bring": 4909,
    "Ġevent": 4910,
    "Ġsurely": 4911,
    "maid": 4912,
    "Coriol": 4913,
    "should": 4914,
    "Ġforced": 4915,
    "forced": 4916,
    "Ġwaking": 4917,
    "Ġagree": 4918,
    "Ġago": 4919,
    "Ġsilent": 4920,
    "Ġinstruments": 4921,
    "Cannot": 4922,
    "Keep": 4923,
    "olsce": 4924,
    "Ġbeholding": 4925,
    "Ġfalsehood": 4926,
    "Ġcorre": 4927,
    "Ġstopp": 4928,
    "Ġsingle": 4929,
    "Ġbreathed": 4930,
    "Ġforgive": 4931,
    "Ġmistrust": 4932,
    "Ġweakness": 4933,
    "Ġprett": 4934,
    "Ġregard": 4935,
    "Ġregal": 4936,
    "Ġsickness": 4937,
    "Ġbooks": 4938,
    "Ġmouths": 4939,
    "Ġbarren": 4940,
    "Ġdesires": 4941,
    "Ġfires": 4942,
    "Ġcontempt": 4943,
    "Ġbeasts": 4944,
    "Ġforfeit": 4945,
    "Ġdying": 4946,
    "Ġalthough": 4947,
    "Ġtrumpet": 4948,
    "Ġpitch": 4949,
    "semble": 4950,
    "eeming": 4951,
    "Ġenforce": 4952,
    "Ġoffended": 4953,
    "Ġunkind": 4954,
    "grim": 4955,
    "Ġslaves": 4956,
    "Ġknaves": 4957,
    "Ġtempest": 4958,
    "Ġdeceit": 4959,
    "Ġsuspect": 4960,
    "Ġapparent": 4961,
    "Ġreverence": 4962,
    "Ġentertainment": 4963,
    "Ġobedient": 4964,
    "ĠAnti": 4965,
    "Ġalliance": 4966,
    "Ġdetermined": 4967,
    "Ġhelm": 4968,
    "Ġgently": 4969,
    "Ġtask": 4970,
    "Ġholp": 4971,
    "Ġfairest": 4972,
    "Ġtremble": 4973,
    "Ġexchange": 4974,
    "shire": 4975,
    "ĠFroth": 4976,
    "Ġstabb": 4977,
    "Ġtyranny": 4978,
    "Ġlength": 4979,
    "Ġshield": 4980,
    "ancholy": 4981,
    "Ġaboard": 4982,
    "fellow": 4983,
    "Ġdescend": 4984,
    "ĠSicilia": 4985,
    "faced": 4986,
    "Ġcommission": 4987,
    "enna": 4988,
    "groom": 4989,
    "Leave": 4990,
    "Ġequal": 4991,
    "Ġfancy": 4992,
    "Ġyoke": 4993,
    "Ġfashion": 4994,
    "Ġdignity": 4995,
    "Ġcomplex": 4996,
    "Ġdisgrace": 4997,
    "Ġcircumst": 4998,
    "ouchsa": 4999
}