{
    "\u0000": 0,
    "\u0001": 1,
    "\u0002": 2,
    "\u0003": 3,
    "\u0004": 4,
    "\u0005": 5,
    "\u0006": 6,
    "\u0007": 7,
    "\b": 8,
    "\t": 9,
    "Ċ": 10,
    "\u000b": 11,
    "\f": 12,
    "\r": 13,
    "\u000e": 14,
    "\u000f": 15,
    "\u0010": 16,
    "\u0011": 17,
    "\u0012": 18,
    "\u0013": 19,
    "\u0014": 20,
    "\u0015": 21,
    "\u0016": 22,
    "\u0017": 23,
    "\u0018": 24,
    "\u0019": 25,
    "\u001a": 26,
    "\u001b": 27,
    "\u001c": 28,
    "\u001d": 29,
    "\u001e": 30,
    "\u001f": 31,
    "Ġ": 32,
    "!": 33,
    "\"": 34,
    "#": 35,
    "$": 36,
    "%": 37,
    "&": 38,
    "'": 39,
    "(": 40,
    ")": 41,
    "*": 42,
    "+": 43,
    ",": 44,
    "-": 45,
    ".": 46,
    "/": 47,
    "0": 48,
    "1": 49,
    "2": 50,
    "3": 51,
    "4": 52,
    "5": 53,
    "6": 54,
    "7": 55,
    "8": 56,
    "9": 57,
    ":": 58,
    ";": 59,
    "<": 60,
    "=": 61,
    ">": 62,
    "?": 63,
    "@": 64,
    "A": 65,
    "B": 66,
    "C": 67,
    "D": 68,
    "E": 69,
    "F": 70,
    "G": 71,
    "H": 72,
    "I": 73,
    "J": 74,
    "K": 75,
    "L": 76,
    "M": 77,
    "N": 78,
    "O": 79,
    "P": 80,
    "Q": 81,
    "R": 82,
    "S": 83,
    "T": 84,
    "U": 85,
    "V": 86,
    "W": 87,
    "X": 88,
    "Y": 89,
    "Z": 90,
    "[": 91,
    "\\": 92,
    "]": 93,
    "^": 94,
    "_": 95,
    "`": 96,
    "a": 97,
    "b": 98,
    "c": 99,
    "d": 100,
    "e": 101,
    "f": 102,
    "g": 103,
    "h": 104,
    "i": 105,
    "j": 106,
    "k": 107,
    "l": 108,
    "m": 109,
    "n": 110,
    "o": 111,
    "p": 112,
    "q": 113,
    "r": 114,
    "s": 115,
    "t": 116,
    "u": 117,
    "v": 118,
    "w": 119,
    "x": 120,
    "y": 121,
    "z": 122,
    "{": 123,
    "|": 124,
    "}": 125,
    "~": 126,
    "": 127,
    "<0x80>": 128,
    "<0x81>": 129,
    "<0x82>": 130,
    "<0x83>": 131,
    "<0x84>": 132,
    "<0x85>": 133,
    "<0x86>": 134,
    "<0x87>": 135,
    "<0x88>": 136,
    "<0x89>": 137,
    "<0x8a>": 138,
    "<0x8b>": 139,
    "<0x8c>": 2161,
    "<0x8d>": 141,
    "<0x8e>": 142,
    "<0x8f>": 143,
    "<0x90>": 144,
    "<0x91>": 2157,
    "<0x92>": 146,
    "<0x93>": 147,
    "<0x94>": 148,
    "<0x95>": 149,
    "<0x96>": 150,
    "<0x97>": 151,
    "<0x98>": 2162,
    "<0x99>": 153,
    "<0x9a>": 154,
    "<0x9b>": 155,
    "<0x9c>": 156,
    "<0x9d>": 157,
    "<0x9e>": 158,
    "<0x9f>": 159,
    "<0xa0>": 160,
    "<0xa1>": 161,
    "<0xa2>": 162,
    "<0xa3>": 163,
    "<0xa4>": 164,
    "<0xa5>": 165,
    "<0xa6>": 166,
    "<0xa7>": 167,
    "<0xa8>": 168,
    "<0xa9>": 169,
    "<0xaa>": 170,
    "<0xab>": 171,
    "<0xac>": 172,
    "<0xad>": 173,
    "<0xae>": 174,
    "<0xaf>": 175,
    "<0xb0>": 176,
    "<0xb1>": 177,
    "<0xb2>": 178,
    "<0xb3>": 179,
    "<0xb4>": 180,
    "<0xb5>": 181,
    "<0xb6>": 182,
    "<0xb7>": 183,
    "<0xb8>": 184,
    "<0xb9>": 185,
    "<0xba>": 186,
    "<0xbb>": 187,
    "<0xbc>": 188,
    "<0xbd>": 189,
    "<0xbe>": 190,
    "<0xbf>": 191,
    "<0xc0>": 192,
    "<0xc1>": 193,
    "<0xc2>": 194,
    "<0xc3>": 195,
    "<0xc4>": 196,
    "<0xc5>": 197,
    "<0xc6>": 198,
    "<0xc7>": 199,
    "<0xc8>": 200,
    "<0xc9>": 201,
    "<0xca>": 202,
    "<0xcb>": 203,
    "<0xcc>": 204,
    "<0xcd>": 205,
    "<0xce>": 206,
    "<0xcf>": 207,
    "<0xd0>": 208,
    "<0xd1>": 209,
    "<0xd2>": 210,
    "<0xd3>": 211,
    "<0xd4>": 212,
    "<0xd5>": 213,
    "<0xd6>": 214,
    "<0xd7>": 215,
    "<0xd8>": 216,
    "<0xd9>": 217,
    "<0xda>": 218,
    "<0xdb>": 219,
    "<0xdc>": 220,
    "<0xdd>": 221,
    "<0xde>": 222,
    "<0xdf>": 223,
    "<0xe0>": 4592,
    "<0xe1>": 225,
    "<0xe2>": 543,
    "<0xe3>": 227,
    "<0xe4>": 228,
    "<0xe5>": 229,
    "<0xe6>": 230,
    "<0xe7>": 231,
    "<0xe8>": 232,
    "<0xe9>": 233,
    "<0xea>": 234,
    "<0xeb>": 235,
    "<0xec>": 236,
    "<0xed>": 237,
    "<0xee>": 238,
    "<0xef>": 2160,
    "<0xf0>": 240,
    "<0xf1>": 241,
    "<0xf2>": 242,
    "<0xf3>": 243,
    "<0xf4>": 244,
    "<0xf5>": 245,
    "<0xf6>": 246,
    "<0xf7>": 247,
    "<0xf8>": 248,
    "<0xf9>": 249,
    "<0xfa>": 250,
    "<0xfb>": 251,
    "<0xfc>": 252,
    "<0xfd>": 253,
    "<0xfe>": 254,
    "<0xff>": 255,
    "Ġt": 256,
    "an": 257,
    "er": 258,
    "in": 259,
    "he": 260,
    "is": 261,
    "Ġa": 262,
    "on": 263,
    "re": 264,
    "at": 265,
    "Ġthe": 266,
    "Ġc": 267,
    "Ġs": 268,
    "en": 269,
    "or": 270,
    "ou": 271,
    "Ġw": 272,
    "al": 273,
    "ss": 274,
    "ing": 275,
    "ant": 276,
    "it": 277,
    "Ġp": 278,
    "ist": 279,
    "Ġan": 280,
    "Ġb": 281,
    "Ġf": 282,
    "es": 283,
    "Ġm": 284,
    "ar": 285,
    "Ġo": 286,
    "ser": 287,
    "ssist": 288,
    "ssistant": 289,
    "Assistant": 290,
    "User": 291,
    "Ġand": 292,
    "ed": 293,
    "Ġin": 294,
    "Ġd": 295,
    "Ġh": 296,
    "Ġof": 297,
    "Ġto": 298,
    "ic": 299,
    "ion": 300,
    "Ġis": 301,
    "ll": 302,
    "ow": 303,
    "Ġy": 304,
    "le": 305,
    "as": 306,
    "om": 307,
    "ĠI": 308,
    "ĠT": 309,
    "Ġyou": 310,
    "ĠA": 311,
    "Ġn": 312,
    "hat": 313,
    "ĠS": 314,
    "ers": 315,
    "Ġl": 316,
    "et": 317,
    "ent": 318,
    "ĠW": 319,
    "Ġe": 320,
    "ve": 321,
    "st": 322,
    "se": 323,
    "ro": 324,
    "Ġre": 325,
    "Ġg": 326,
    "ct": 327,
    "ation": 328,
    "am": 329,
    "Ġare": 330,
    "ch": 331,
    "ĠC": 332,
    "ce": 333,
    "ay": 334,
    "ot": 335,
    "ra": 336,
    "ly": 337,
    "ĠH": 338,
    "Ġk": 339,
    "ĠG": 340,
    "Ġ[": 341,
    "ur": 342,
    "ig": 343,
    "ol": 344,
    "id": 345,
    "nd": 346,
    "im": 347,
    "od": 348,
    "Ġth": 349,
    "ap": 350,
    "Ġst": 351,
    "Ġ(": 352,
    "Ġon": 353,
    "il": 354,
    "Ġfor": 355,
    "ĠP": 356,
    "Ġu": 357,
    "ad": 358,
    "ĠL": 359,
    "Ġbe": 360,
    "ĠM": 361,
    "ut": 362,
    "ĠB": 363,
    "em": 364,
    "ith": 365,
    "el": 366,
    "ke": 367,
    "th": 368,
    "ter": 369,
    "ag": 370,
    "ir": 371,
    "Ġwith": 372,
    "um": 373,
    "qu": 374,
    "est": 375,
    "Ġwh": 376,
    "av": 377,
    "ul": 378,
    "ver": 379,
    "ĠThe": 380,
    "Ġpro": 381,
    "ĠD": 382,
    "ĠWhat": 383,
    "ri": 384,
    "hell": 385,
    "ere": 386,
    "Ġha": 387,
    "Ġ1": 388,
    "ĠN": 389,
    "Ġcon": 390,
    "un": 391,
    "Ġthat": 392,
    "'s": 393,
    "ck": 394,
    "if": 395,
    "Ġas": 396,
    "ĠF": 397,
    "ia": 398,
    "ine": 399,
    "Ġdo": 400,
    "orm": 401,
    "ĠR": 402,
    "rom": 403,
    "Ġit": 404,
    "hin": 405,
    "igh": 406,
    "ive": 407,
    "Ġme": 408,
    "Ġor": 409,
    "Ġyour": 410,
    "Ġcan": 411,
    "ep": 412,
    "end": 413,
    "Ġpow": 414,
    "ĠInd": 415,
    "ate": 416,
    "iz": 417,
    "ect": 418,
    "ĠE": 419,
    "out": 420,
    "and": 421,
    "all": 422,
    "yn": 423,
    "op": 424,
    "ld": 425,
    "ood": 426,
    "ha": 427,
    "Ġpowers": 428,
    "EC": 429,
    "Ġr": 430,
    "apse": 431,
    "EX": 432,
    "TY": 433,
    "PE": 434,
    "Ġby": 435,
    "Ġpowershell": 436,
    "ynapse": 437,
    "EXEC": 438,
    "TYPE": 439,
    "Ġwe": 440,
    "Ġhe": 441,
    "us": 442,
    "ies": 443,
    "ity": 444,
    "art": 445,
    "ĠAb": 446,
    "Ġse": 447,
    "ure": 448,
    "Ġmo": 449,
    "Ġv": 450,
    "hinav": 451,
    "ight": 452,
    "Ġwas": 453,
    "Ġcom": 454,
    "ill": 455,
    "'m": 456,
    "Ġfrom": 457,
    "ĠSynapse": 458,
    "Ġqu": 459,
    "ormal": 460,
    "pe": 461,
    "Ġ2": 462,
    "ĠAbhinav": 463,
    "Ġnormal": 464,
    "iv": 465,
    "Ġpl": 466,
    "Ġma": 467,
    "ĠU": 468,
    "ence": 469,
    "Ġte": 470,
    "ab": 471,
    "Ġab": 472,
    "ame": 473,
    "oc": 474,
    "ical": 475,
    "Ġex": 476,
    "Ġch": 477,
    "Ġsh": 478,
    "Ġnot": 479,
    "ĠIndia": 480,
    "Ġde": 481,
    "ich": 482,
    "ike": 483,
    "reat": 484,
    "ĠO": 485,
    "fer": 486,
    "ment": 487,
    "ome": 488,
    "Ġra": 489,
    "nt": 490,
    "Ġwhat": 491,
    "Ġal": 492,
    "Ġus": 493,
    "Ġle": 494,
    "ĠHe": 495,
    "Ġkar": 496,
    "og": 497,
    "du": 498,
    "ip": 499,
    "ĠWh": 500,
    "ud": 501,
    "ast": 502,
    "ĠTh": 503,
    "ĠK": 504,
    "ial": 505,
    "alk": 506,
    "oon": 507,
    "ew": 508,
    "Ġat": 509,
    "ort": 510,
    "ould": 511,
    "ĠJ": 512,
    "ide": 513,
    "LM": 514,
    "Ġsu": 515,
    "ĠY": 516,
    "ization": 517,
    "Ġhave": 518,
    "ard": 519,
    "Ġabout": 520,
    "yst": 521,
    "are": 522,
    "ice": 523,
    "own": 524,
    "Ġthis": 525,
    "te": 526,
    "os": 527,
    "ions": 528,
    "our": 529,
    "Ġ-": 530,
    "ystem": 531,
    "),": 532,
    "hen": 533,
    "ject": 534,
    "ĠAI": 535,
    "ain": 536,
    "RA": 537,
    "Ġman": 538,
    "antization": 539,
    "oRA": 540,
    "Ġmod": 541,
    "rit": 542,
    "Ġlike": 544,
    "Ġop": 545,
    "ans": 546,
    "rou": 547,
    "vers": 548,
    "Ġwhich": 549,
    "Ġgo": 550,
    "ge": 551,
    "ime": 552,
    "ng": 553,
    "ire": 554,
    "Ġall": 555,
    "Ġinc": 556,
    "ear": 557,
    "ple": 558,
    "ĠHow": 559,
    "Ġhas": 560,
    "ates": 561,
    "ry": 562,
    "ĠIt": 563,
    "Ġmodel": 564,
    "old": 565,
    "ĠUn": 566,
    "gh": 567,
    "ations": 568,
    "Ġpre": 569,
    "ber": 570,
    "Ġquantization": 571,
    "Ġwor": 572,
    "Ġ19": 573,
    "Ġwho": 574,
    "la": 575,
    "ey": 576,
    "Ġhum": 577,
    "Ġstart": 578,
    "Ġhow": 579,
    "Ġday": 580,
    "oll": 581,
    "Ġtalk": 582,
    "Ġper": 583,
    "Ġraha": 584,
    "so": 585,
    "ok": 586,
    "00": 587,
    "ase": 588,
    "Ġj": 589,
    "ore": 590,
    "ac": 591,
    "Ġkn": 592,
    "ak": 593,
    "ĠTy": 594,
    "ust": 595,
    "ff": 596,
    "ie": 597,
    "ance": 598,
    "very": 599,
    "Ġ4": 600,
    "pt": 601,
    "Ġtra": 602,
    "Ġtime": 603,
    "ong": 604,
    "ory": 605,
    "per": 606,
    "agi": 607,
    "cy": 608,
    "con": 609,
    "ĠLLM": 610,
    "ake": 611,
    "Ġsystem": 612,
    "ĠTyagi": 613,
    "ĠEng": 614,
    "ĠSt": 615,
    "Ġ\"": 616,
    "ther": 617,
    "Ġconvers": 618,
    "Ġsp": 619,
    "ally": 620,
    "Ġgood": 621,
    "ark": 622,
    "age": 623,
    "one": 624,
    "ile": 625,
    "Ġhai": 626,
    "ue": 627,
    "ind": 628,
    "sid": 629,
    "Ġthere": 630,
    ").": 631,
    "mer": 632,
    "ener": 633,
    "Ġalso": 634,
    "ric": 635,
    "ĠIn": 636,
    "Ġcur": 637,
    "ank": 638,
    "ary": 639,
    "ĠCh": 640,
    "Ġad": 641,
    "Ġar": 642,
    "ens": 643,
    "Ġcreat": 644,
    "Ġmany": 645,
    "ous": 646,
    "Ġhoon": 647,
    "ish": 648,
    "chn": 649,
    "Ġhuman": 650,
    "Ġhis": 651,
    "ub": 652,
    "Ġac": 653,
    "Ġim": 654,
    "ug": 655,
    "ach": 656,
    "ack": 657,
    "ang": 658,
    "Ġco": 659,
    "Ġev": 660,
    "ction": 661,
    "ount": 662,
    "ference": 663,
    "lp": 664,
    "ning": 665,
    "lo": 666,
    "Ġfine": 667,
    "xt": 668,
    "Ġplay": 669,
    "Ġspe": 670,
    "Ġ3": 671,
    "anc": 672,
    "ated": 673,
    "Ġhelp": 674,
    "Ġmore": 675,
    "LoRA": 676,
    "ĠTe": 677,
    "ian": 678,
    "Ġthem": 679,
    "Ġup": 680,
    "ĠGood": 681,
    "to": 682,
    "Ġwell": 683,
    "Ġtheir": 684,
    "Ġyear": 685,
    "bit": 686,
    "erson": 687,
    "com": 688,
    "Ġopen": 689,
    "ĠQ": 690,
    "act": 691,
    "ineer": 692,
    "ound": 693,
    "ater": 694,
    "Ġbet": 695,
    "Ġlist": 696,
    "cess": 697,
    "form": 698,
    "ĠV": 699,
    "her": 700,
    "Ġbu": 701,
    "Ġbut": 702,
    "alc": 703,
    "Ġne": 704,
    "Ġcomp": 705,
    "Ġso": 706,
    "ors": 707,
    "lud": 708,
    "atter": 709,
    "Ġmost": 710,
    "Ġpe": 711,
    "Ġ20": 712,
    "Ġname": 713,
    "Ġsome": 714,
    "ĠYou": 715,
    "pp": 716,
    "Ġche": 717,
    "Ġone": 718,
    "ult": 719,
    "Ġhain": 720,
    "ren": 721,
    "Ġdif": 722,
    "Ġmy": 723,
    "Ġwhen": 724,
    "ace": 725,
    "Ġinclud": 726,
    "irst": 727,
    "older": 728,
    "Ġimp": 729,
    "ob": 730,
    "Ġoff": 731,
    "vel": 732,
    "olog": 733,
    "ĠEngineer": 734,
    "ree": 735,
    "les": 736,
    "ne": 737,
    "ite": 738,
    "Ġchat": 739,
    "ational": 740,
    "..": 741,
    "ople": 742,
    "Ġthey": 743,
    "ord": 744,
    "ents": 745,
    "able": 746,
    "Ġres": 747,
    "Ġuse": 748,
    "tern": 749,
    "tun": 750,
    "ru": 751,
    "ye": 752,
    "GU": 753,
    "Ġen": 754,
    "ign": 755,
    "GUF": 756,
    "ĠGGUF": 757,
    "mon": 758,
    "owing": 759,
    "Ġevery": 760,
    "ings": 761,
    "ĠWho": 762,
    "Ġsm": 763,
    "ative": 764,
    "Ġout": 765,
    "Ġgoing": 766,
    "Ġwill": 767,
    "ments": 768,
    "meric": 769,
    "Ġke": 770,
    "Ġits": 771,
    "Ġmain": 772,
    "Ġi": 773,
    "ph": 774,
    "Ġcap": 775,
    "ĠPre": 776,
    "Ġcall": 777,
    "Ġredu": 778,
    "Ġcont": 779,
    "attery": 780,
    "ild": 781,
    "Ġloc": 782,
    "Ġcare": 783,
    "Ġperson": 784,
    "Ġfirst": 785,
    "Ġpeople": 786,
    "ĠAmeric": 787,
    "ts": 788,
    "Ġmem": 789,
    "cri": 790,
    "epad": 791,
    "Ġcrit": 792,
    "ick": 793,
    "ily": 794,
    "Ġun": 795,
    "we": 796,
    "au": 797,
    "ital": 798,
    "Ġdoing": 799,
    "lass": 800,
    "Ġro": 801,
    "Ġfil": 802,
    "Ġfoll": 803,
    "ason": 804,
    "epend": 805,
    "Ġaf": 806,
    "Ġlo": 807,
    "Ġmet": 808,
    "Ġmeet": 809,
    "ise": 810,
    "Ġem": 811,
    "Ġusing": 812,
    "ĠThis": 813,
    "ya": 814,
    "aw": 815,
    "ough": 816,
    "ink": 817,
    "Ġbr": 818,
    "ib": 819,
    "Ġag": 820,
    "Ġban": 821,
    "Ġdes": 822,
    "ient": 823,
    "oot": 824,
    "Ġprov": 825,
    "Ġprodu": 826,
    "itive": 827,
    "Ġcheck": 828,
    "ited": 829,
    "aun": 830,
    "ball": 831,
    "Ġcritical": 832,
    "Ġsc": 833,
    "ork": 834,
    "Ġpart": 835,
    "Ġcl": 836,
    "Ġdat": 837,
    "Ġprof": 838,
    "Ġother": 839,
    "ĠGener": 840,
    "sel": 841,
    "ĠHey": 842,
    "Ġwould": 843,
    "Ġconversations": 844,
    "ition": 845,
    "ased": 846,
    "Ġmake": 847,
    "rans": 848,
    "ose": 849,
    "ved": 850,
    "ĠCom": 851,
    "amp": 852,
    "Ġknown": 853,
    "Ġtechn": 854,
    "Ġser": 855,
    "ities": 856,
    "lete": 857,
    "alcul": 858,
    "AG": 859,
    "rome": 860,
    "ural": 861,
    "Ġteam": 862,
    "ĠSLM": 863,
    "ĠLoRA": 864,
    "Ġinference": 865,
    "ĠQLoRA": 866,
    "tuning": 867,
    "Ġdelete": 868,
    "ĠRAG": 869,
    "Ġam": 870,
    "apt": 871,
    "als": 872,
    "ass": 873,
    "Ġfe": 874,
    "rough": 875,
    "sident": 876,
    "ail": 877,
    "ful": 878,
    "Ġsee": 879,
    "Ġbest": 880,
    "land": 881,
    "Ġspec": 882,
    "Ġsim": 883,
    "Ġshould": 884,
    "Ġworld": 885,
    "Ġinto": 886,
    "17": 887,
    "Ġfl": 888,
    "ivers": 889,
    "Ġsystems": 890,
    "erm": 891,
    "Ġbo": 892,
    "Ġnat": 893,
    "uring": 894,
    "Ġused": 895,
    "ening": 896,
    "ically": 897,
    "Ġcould": 898,
    "hone": 899,
    "Ġpo": 900,
    "Ġonly": 901,
    "ular": 902,
    "ĠNew": 903,
    "Ġtrain": 904,
    "aj": 905,
    "Ġhi": 906,
    "Ġover": 907,
    "Ġdiffer": 908,
    "ĠĠ": 909,
    "cing": 910,
    "Ġrun": 911,
    "ights": 912,
    "cript": 913,
    "Ġcapital": 914,
    "Ġfollowing": 915,
    "ows": 916,
    "ency": 917,
    "Ġback": 918,
    "hi": 919,
    "Ġsa": 920,
    "Ġwere": 921,
    "ft": 922,
    "Ġgreat": 923,
    "ons": 924,
    "ari": 925,
    "ets": 926,
    "Ġrem": 927,
    "round": 928,
    "Ġarch": 929,
    "Ġpar": 930,
    "Ġrec": 931,
    "Ġproject": 932,
    "self": 933,
    "ĠMy": 934,
    "king": 935,
    "The": 936,
    "ond": 937,
    "Ġpr": 938,
    "Ġway": 939,
    "ilt": 940,
    "ify": 941,
    "Ġsub": 942,
    "Ġ8": 943,
    "arn": 944,
    "arg": 945,
    "Ġaur": 946,
    "Ġbec": 947,
    "hello": 948,
    "Ġcount": 949,
    "Ġwater": 950,
    "Ġlocal": 951,
    "Ġhello": 952,
    "Ġwant": 953,
    "Ġact": 954,
    "ĠGet": 955,
    "ever": 956,
    "ĠWhen": 957,
    "Ġdifferent": 958,
    "Ġtw": 959,
    "Ġty": 960,
    "ask": 961,
    "itect": 962,
    "eys": 963,
    "chie": 964,
    "orn": 965,
    "ract": 966,
    "<0x20>": 2158,
    "Ġinclude": 968,
    "Ġsk": 969,
    "ator": 970,
    "ching": 971,
    "Ġtell": 972,
    "Ġshut": 973,
    "new": 974,
    "ward": 975,
    "down": 976,
    "rency": 977,
    "Ġpersonal": 978,
    "Ġachie": 979,
    "ĠPro": 980,
    "Ġtest": 981,
    "Ġpop": 982,
    "ures": 983,
    "Ġeff": 984,
    "Ġcreator": 985,
    "Ġarchitect": 986,
    "put": 987,
    "cond": 988,
    "Ġsmall": 989,
    "IT": 990,
    "ssion": 991,
    "Ġund": 992,
    "ady": 993,
    "ĠNo": 994,
    "ĠNot": 995,
    "Ġband": 996,
    "Ġright": 997,
    "ience": 998,
    "Ġuses": 999,
    "Ġsuch": 1000,
    "’": 1001,
    "ween": 1002,
    "script": 1003,
    "Ġ/": 1004,
    "yw": 1005,
    "hed": 1006,
    "kes": 1007,
    "Ġdid": 1008,
    "Ġacc": 1009,
    "Ġeach": 1010,
    "Ġfiles": 1011,
    "ting": 1012,
    "lic": 1013,
    "char": 1014,
    "day": 1015,
    "Ġhigh": 1016,
    "Ġbus": 1017,
    "ĠNice": 1018,
    "ĠUnited": 1019,
    "([": 1021,
    "ted": 1022,
    "Ġthan": 1023,
    "rie": 1024,
    "shell": 1025,
    "endK": 1026,
    "Ġip": 1027,
    "Ġstates": 1028,
    "Ġknow": 1029,
    "Ġfolder": 1030,
    "object": 1031,
    "Ġnotepad": 1032,
    "Ġkya": 1033,
    "icient": 1034,
    "Ġshutdown": 1035,
    "ITL": 1036,
    "Ġwscript": 1037,
    "endKeys": 1039,
    "HITL": 1040,
    "SendKeys": 1041,
    "Ġcreated": 1042,
    "Ġseason": 1043,
    "ins": 1044,
    "Ġmon": 1045,
    "Ġtoo": 1046,
    "Ġno": 1047,
    "Ġexper": 1048,
    "ten": 1049,
    "Ġthese": 1050,
    "ute": 1051,
    "ĠDay": 1052,
    "Ġwhere": 1053,
    "Ġneed": 1054,
    "Ġbetween": 1055,
    "Ġmu": 1056,
    "Ġform": 1057,
    "ĠFA": 1058,
    "Ġend": 1059,
    "Ġduring": 1060,
    "ars": 1061,
    "Ġmus": 1062,
    "Ġincre": 1063,
    "ember": 1064,
    "Ġadv": 1065,
    "Ġbetter": 1066,
    "ving": 1067,
    "ific": 1068,
    "Ġif": 1069,
    "like": 1070,
    "Ġwork": 1071,
    "ependence": 1072,
    "hes": 1073,
    "Ġquest": 1074,
    "Ġtake": 1075,
    "Ġprocess": 1076,
    "ĠPresident": 1077,
    "Ġtwo": 1078,
    "Ġfin": 1079,
    "arp": 1080,
    "Ġfam": 1081,
    "Ġinter": 1082,
    "olum": 1083,
    "Ġexp": 1084,
    "ology": 1085,
    "ĠEngineering": 1086,
    "In": 1087,
    "ix": 1088,
    "ces": 1089,
    "Ġinv": 1090,
    "Ġbuilt": 1091,
    "az": 1092,
    "PI": 1093,
    "Ġ5": 1094,
    "ash": 1095,
    "Ġnow": 1096,
    "Ġstr": 1097,
    "ogn": 1098,
    "ĠSystem": 1099,
    "Ġcurrency": 1100,
    "Ġsecond": 1101,
    "ĠThere": 1102,
    "ĠTechn": 1103,
    "work": 1104,
    "Ġdr": 1105,
    "Ġinst": 1106,
    "ock": 1107,
    "Ġmemory": 1108,
    "Ġmetric": 1109,
    "Ġyourself": 1110,
    "rent": 1111,
    "ause": 1112,
    "ĠIndependence": 1113,
    "SS": 1114,
    "iven": 1115,
    "ĠAmerican": 1116,
    "Ġnatural": 1117,
    "ost": 1118,
    "ized": 1119,
    "quire": 1120,
    "Ġreducing": 1121,
    "res": 1122,
    "led": 1123,
    "ision": 1124,
    "oth": 1125,
    "Ġtem": 1126,
    "Ġmay": 1127,
    "ĠPs": 1128,
    "Ġstud": 1129,
    "atency": 1130,
    "ognitive": 1131,
    "PU": 1132,
    "ating": 1133,
    "ell": 1134,
    "ĠSc": 1135,
    "arch": 1136,
    "ĠLe": 1137,
    "alth": 1138,
    "Ġnight": 1139,
    "Ġyears": 1140,
    "Ġapp": 1141,
    "ĠGenerative": 1142,
    "ĠUnivers": 1143,
    "Ġcognitive": 1144,
    "ĠCPU": 1145,
    "ual": 1146,
    "ĠAd": 1147,
    "arly": 1148,
    "ĠStates": 1149,
    "Ġcommon": 1150,
    "Ġemot": 1151,
    "Ġweights": 1152,
    "Ġmetrics": 1153,
    "Ġdis": 1154,
    "ĠAn": 1155,
    "Ġli": 1156,
    "ade": 1157,
    "Ġsound": 1158,
    "...": 1159,
    "aju": 1160,
    "ĠFAI": 1161,
    "ywarp": 1162,
    "ĠKaju": 1163,
    "ĠFAISS": 1164,
    "ĠPsywarp": 1165,
    "ery": 1166,
    "lor": 1167,
    "Ġwin": 1168,
    "ants": 1169,
    "Ġgr": 1170,
    "alking": 1171,
    "Ġkeep": 1172,
    "ah": 1173,
    "Ġher": 1174,
    "ĠAr": 1175,
    "Ġget": 1176,
    "Ġdata": 1177,
    "Ġcurrent": 1178,
    "ĠZ": 1179,
    "ec": 1180,
    "way": 1181,
    "hip": 1182,
    "Ġcomple": 1183,
    "Ġresp": 1184,
    "Ġagain": 1185,
    "io": 1186,
    "oy": 1187,
    "ics": 1188,
    "ĠAl": 1189,
    "Ġret": 1190,
    "Ġrele": 1191,
    "Ġreg": 1192,
    "Ġatt": 1193,
    "sider": 1194,
    "ious": 1195,
    "Ġprovide": 1196,
    "Ġtyp": 1197,
    "'t": 1198,
    "cking": 1199,
    "roup": 1200,
    "olume": 1201,
    "ni": 1202,
    "br": 1203,
    "ced": 1204,
    "ble": 1205,
    "ames": 1206,
    "ually": 1207,
    "Ġbattery": 1208,
    "Ġrequire": 1209,
    "wn": 1210,
    "'re": 1211,
    "Ġcre": 1212,
    "Ġmor": 1213,
    "fig": 1214,
    "ird": 1215,
    "ize": 1216,
    "Ġvery": 1217,
    "Ġcalcul": 1218,
    "Ġsimple": 1219,
    "Ġconsider": 1220,
    "ĠĊ": 1221,
    "ĠCal": 1222,
    "ife": 1223,
    "riend": 1224,
    "Ġcity": 1225,
    "Ġext": 1226,
    "Ġide": 1227,
    "Ġnice": 1228,
    "Ġfile": 1229,
    "ĠTell": 1230,
    "Ġimpro": 1231,
    "ĠUniversity": 1232,
    "config": 1233,
    "Ġshe": 1234,
    "ict": 1235,
    "ouse": 1236,
    "ool": 1237,
    "Ġ18": 1238,
    "Ġvis": 1239,
    "Ġlong": 1240,
    "ĠIndian": 1241,
    "ather": 1242,
    "raph": 1243,
    "Ġvolume": 1244,
    "ven": 1245,
    "Ġrep": 1246,
    "ĠHi": 1247,
    "Ġnum": 1248,
    "Ġhere": 1249,
    "Ġcomm": 1250,
    "ange": 1251,
    "Ġdire": 1252,
    "Ġkey": 1253,
    "Ġperc": 1254,
    "folder": 1255,
    "Ġbanay": 1256,
    "Ġkaun": 1257,
    "Ġchrome": 1258,
    "Ġlearn": 1259,
    "Ġipconfig": 1260,
    "oh": 1261,
    "ene": 1262,
    "line": 1263,
    "Ġthink": 1264,
    "Ġtrans": 1265,
    "Ġpopular": 1266,
    "Ġquestions": 1267,
    "Ġmorning": 1268,
    "its": 1269,
    "Ġmin": 1270,
    "Ġcar": 1271,
    "tle": 1272,
    "Ġcent": 1273,
    "ĠCon": 1274,
    "Ġwel": 1275,
    "come": 1276,
    "ĠYes": 1277,
    "Ġpos": 1278,
    "Ġ202": 1279,
    "tt": 1280,
    "iss": 1281,
    "ress": 1282,
    "Ġind": 1283,
    "erst": 1284,
    "ĠWhich": 1285,
    "Ġtext": 1286,
    "Ġcalled": 1287,
    "etwork": 1288,
    "any": 1289,
    "alu": 1290,
    "Ġass": 1291,
    "Ġbl": 1292,
    "aster": 1293,
    "Ġsoc": 1294,
    "fore": 1295,
    "Ġwhile": 1296,
    "Ġthank": 1297,
    "ternoon": 1298,
    "Ġmakes": 1299,
    "Ġafternoon": 1300,
    "ze": 1301,
    "Ġ6": 1302,
    "ath": 1303,
    "ower": 1304,
    "Ġbye": 1305,
    "Ġsynapse": 1306,
    "ills": 1307,
    "ocus": 1308,
    "ugust": 1309,
    "Ġele": 1310,
    "iqu": 1311,
    "ries": 1312,
    "Ġ15": 1313,
    "Ġdec": 1314,
    "ĠTake": 1315,
    "Ġgener": 1316,
    "Ġ201": 1317,
    "ootball": 1318,
    "Ġbased": 1319,
    "Ġevening": 1320,
    "Ġmusic": 1321,
    "ĠAugust": 1322,
    "ied": 1323,
    "ele": 1324,
    "ĠSp": 1325,
    "ories": 1326,
    "Ġgame": 1327,
    "Ġadd": 1328,
    "angu": 1329,
    "Ġafter": 1330,
    "Ġremember": 1331,
    "Ġph": 1332,
    "Ġany": 1333,
    "Ġtop": 1334,
    "Ġhad": 1335,
    "Ġbeen": 1336,
    "Ġstate": 1337,
    "Ġdesign": 1338,
    "Ġthrough": 1339,
    "ĠTalking": 1340,
    "Ġwelcome": 1341,
    "Ġrese": 1342,
    "Ġfood": 1343,
    "Ġ200": 1344,
    "Ġja": 1345,
    "Ġaround": 1346,
    "Ġhealth": 1347,
    "Ġfriend": 1348,
    "Ġfocus": 1349,
    "ax": 1350,
    "fl": 1351,
    "Ġhist": 1352,
    "Ġek": 1353,
    "Ġtri": 1354,
    "iness": 1355,
    "Ġhey": 1356,
    "Ġcour": 1357,
    "Ġconversational": 1358,
    "Ġfeel": 1359,
    "Ġimprove": 1360,
    "gan": 1361,
    "der": 1362,
    "ull": 1363,
    "Ġgra": 1364,
    "Ġhome": 1365,
    "Ġpub": 1366,
    "Ġlangu": 1367,
    "Ġ&": 1368,
    "red": 1369,
    "Ġsl": 1370,
    "Ġfar": 1371,
    "ĠAs": 1372,
    "ĠWin": 1373,
    "icial": 1374,
    "Ġtask": 1375,
    "Ġincrease": 1376,
    "erstand": 1377,
    "ron": 1378,
    "ĠIs": 1379,
    "ility": 1380,
    "orts": 1381,
    "Ġcost": 1382,
    "Ġthen": 1383,
    "Ġbad": 1384,
    "Ġbel": 1385,
    "ages": 1386,
    "ĠSure": 1387,
    "Ġmark": 1388,
    "velop": 1389,
    "Ġfree": 1390,
    "up": 1391,
    "Ġbeing": 1392,
    "Ġdep": 1393,
    "Ġtry": 1394,
    "ague": 1395,
    "Ġthough": 1396,
    "Ġdirect": 1397,
    "ior": 1398,
    "val": 1399,
    "ody": 1400,
    "Ġfav": 1401,
    "Ġplan": 1402,
    "loy": 1403,
    "Ġspeed": 1404,
    "Ġcountry": 1405,
    "Ġoften": 1406,
    "Ġresearch": 1407,
    "ton": 1408,
    "reen": 1409,
    "enn": 1410,
    "Ġwon": 1411,
    "Ġcle": 1412,
    "Ġcol": 1413,
    "outh": 1414,
    "reating": 1415,
    "ĠWhy": 1416,
    "Ġnew": 1417,
    "lish": 1418,
    "uments": 1419,
    "Ġchild": 1420,
    "elebr": 1421,
    "bo": 1422,
    "Ġap": 1423,
    "ĠIf": 1424,
    "Ġdet": 1425,
    "ram": 1426,
    "Ġdoes": 1427,
    "ĠGive": 1428,
    "Ġstill": 1429,
    "Ġmaj": 1430,
    "Ġpass": 1431,
    "Ġspecial": 1432,
    "Ġfamily": 1433,
    "ledge": 1434,
    "chool": 1435,
    "Ġcelebr": 1436,
    "ier": 1437,
    "ĠHar": 1438,
    "Ġball": 1439,
    "Ġlead": 1440,
    "ĠWhere": 1441,
    "anced": 1442,
    "Ġskills": 1443,
    "Ġunderstand": 1444,
    "ik": 1445,
    "ner": 1446,
    "ves": 1447,
    "ross": 1448,
    "ĠTra": 1449,
    "Ġpur": 1450,
    "yth": 1451,
    "Ġcons": 1452,
    "ĠRu": 1453,
    "arge": 1454,
    "Ġjo": 1455,
    "Ġclo": 1456,
    "Ġbook": 1457,
    "Ġvari": 1458,
    "Ġmade": 1459,
    "Ġown": 1460,
    "Ġdevelop": 1461,
    "Ġ0": 1462,
    "ms": 1463,
    "cer": 1464,
    "Ġwhe": 1465,
    "Ġshow": 1466,
    "Ġdown": 1467,
    "Ġmodels": 1468,
    "Ġtraining": 1469,
    "Ġallows": 1470,
    "Ġlarg": 1471,
    "Ġboth": 1472,
    "Ġbefore": 1473,
    "Ġknowledge": 1474,
    "ee": 1475,
    "co": 1476,
    "ys": 1477,
    "32": 1478,
    "isk": 1479,
    "ling": 1480,
    "Ġset": 1481,
    "lam": 1482,
    "imes": 1483,
    "Ġair": 1484,
    "ĠDel": 1485,
    "Ġ16": 1486,
    "izing": 1487,
    "formation": 1488,
    "Ġstudy": 1489,
    "Ġrespons": 1490,
    "Ġcat": 1491,
    "Ġmed": 1492,
    "ices": 1493,
    "ĠDe": 1494,
    "Ġ10": 1495,
    "ugg": 1496,
    "Ġfound": 1497,
    "Ġimport": 1498,
    ".,": 1499,
    "Ġ9": 1500,
    "Ġbre": 1501,
    "ĠCan": 1502,
    "urn": 1503,
    "app": 1504,
    "Ġbeh": 1505,
    "Ġaut": 1506,
    "ĠFr": 1507,
    "iab": 1508,
    "Ġpower": 1509,
    "Ġmov": 1510,
    "tain": 1511,
    "stance": 1512,
    "Ġplayed": 1513,
    "Ġproduction": 1514,
    "pl": 1515,
    "gin": 1516,
    "ĠSm": 1517,
    "get": 1518,
    "Ġrel": 1519,
    "Ġmil": 1520,
    "ĠPer": 1521,
    "adi": 1522,
    "iel": 1523,
    "ĠFor": 1524,
    "Ġhand": 1525,
    "Ġdef": 1526,
    "ogle": 1527,
    "Ġhumans": 1528,
    "ruct": 1529,
    "ĠCommon": 1530,
    "Ġtemp": 1531,
    "Ġbody": 1532,
    "ris": 1533,
    "Ġav": 1534,
    "Ġca": 1535,
    "ral": 1536,
    "ĠAf": 1537,
    "ĠSh": 1538,
    "Ġeas": 1539,
    "Ġgu": 1540,
    "ĠMar": 1541,
    "ĠThey": 1542,
    "ope": 1543,
    "Ġfind": 1544,
    "Ġprim": 1545,
    "Ġbusiness": 1546,
    "Ġfavor": 1547,
    "Ġmajor": 1548,
    "vant": 1549,
    "ince": 1550,
    "ury": 1551,
    "hink": 1552,
    "Date": 1553,
    "Name": 1554,
    "ĠSome": 1555,
    "errit": 1556,
    "Ġpred": 1557,
    "anks": 1558,
    "ĠQu": 1559,
    "other": 1560,
    "Ġbrow": 1561,
    "ible": 1562,
    "ĠTrans": 1563,
    "Ġpoin": 1564,
    "Ġrecord": 1565,
    "ĠProject": 1566,
    "Ġvisit": 1567,
    "Ġofficial": 1568,
    "Ġbehav": 1569,
    "olf": 1570,
    "ĠPl": 1571,
    "Ġdri": 1572,
    "mented": 1573,
    "Ġwrit": 1574,
    "mark": 1575,
    "ness": 1576,
    "Class": 1577,
    "175": 1578,
    "Ġprojects": 1579,
    "Ġideas": 1580,
    "ython": 1581,
    "gs": 1582,
    "ex": 1583,
    "Ġ7": 1584,
    "sec": 1585,
    "orld": 1586,
    "ĠUS": 1587,
    "Ġ196": 1588,
    "lack": 1589,
    "text": 1590,
    "Ġfact": 1591,
    "Ġincluding": 1592,
    "ampions": 1593,
    "aunching": 1594,
    "Ġarchitecture": 1595,
    "Ġcreate": 1596,
    "Ġnumber": 1597,
    "Ġfavorite": 1598,
    "Ġbrowser": 1599,
    "ĠPython": 1600,
    "kd": 1601,
    "Ġdist": 1602,
    "Ġls": 1603,
    "iet": 1604,
    "Ġpol": 1605,
    "Cim": 1606,
    "ution": 1607,
    "ĠHere": 1608,
    "Ġrm": 1609,
    "Ġsure": 1610,
    "spe": 1611,
    "Ġexam": 1612,
    "abase": 1613,
    "Ġcalc": 1614,
    "Ġkarne": 1615,
    "Battery": 1616,
    "ĠCalcul": 1617,
    "ĠChrome": 1618,
    "173": 1619,
    "Ġparag": 1620,
    "ready": 1621,
    "ĠNotepad": 1622,
    "Ġefficient": 1623,
    "Ġexpert": 1624,
    "Ġmute": 1625,
    "Ġmuch": 1626,
    "waz": 1627,
    "Ġliye": 1628,
    "Ġcalculator": 1629,
    "Ġtechniqu": 1630,
    "Ġcourse": 1631,
    "Ġbadha": 1632,
    "Instance": 1633,
    "ClassName": 1634,
    "kdir": 1635,
    "Ġparagraph": 1636,
    "CimInstance": 1637,
    "Ġmkdir": 1638,
    "45": 1639,
    "eg": 1640,
    "son": 1641,
    "ines": 1642,
    "ention": 1643,
    "Ġkit": 1644,
    "iling": 1645,
    "aut": 1646,
    "Ġdoc": 1647,
    "hind": 1648,
    "Ġlive": 1649,
    "Ġsame": 1650,
    "Ġ198": 1651,
    "conom": 1652,
    "Ġart": 1653,
    "Ġsupp": 1654,
    "Ġthree": 1655,
    "Ġtechnolog": 1656,
    "ĠGiven": 1657,
    "ĠScience": 1658,
    "Ġlife": 1659,
    "Ġadvanced": 1660,
    "Ġcontext": 1661,
    "Ġassistant": 1662,
    "eters": 1663,
    "eth": 1664,
    "Ġbro": 1665,
    "Ġanim": 1666,
    "ĠDr": 1667,
    "hain": 1668,
    "ĠUnion": 1669,
    "ache": 1670,
    "Ġ40": 1671,
    "Ġ35": 1672,
    "ancial": 1673,
    "Ġplace": 1674,
    "Ġclub": 1675,
    "Ġteams": 1676,
    "entify": 1677,
    "Ġtoday": 1678,
    "Ġinvest": 1679,
    "Ġinformation": 1680,
    "Ġbehavior": 1681,
    "Ġtechniques": 1682,
    "Ġbehind": 1683,
    "19": 1684,
    "ists": 1685,
    "ese": 1686,
    "bers": 1687,
    "ech": 1688,
    "ĠGo": 1689,
    "ĠBut": 1690,
    "ems": 1691,
    "orth": 1692,
    "aving": 1693,
    "Ġ28": 1694,
    "ives": 1695,
    "port": 1696,
    "Ġour": 1697,
    "000": 1698,
    "ĠAmerica": 1699,
    "Ġlook": 1700,
    "lassify": 1701,
    "ession": 1702,
    "Ġstring": 1703,
    "Ġbecause": 1704,
    "Ġsocial": 1705,
    "Ġfocuses": 1706,
    "Ġlarge": 1707,
    "Ġdatabase": 1708,
    "uc": 1709,
    "Ġda": 1710,
    "set": 1711,
    "hest": 1712,
    "uro": 1713,
    "xity": 1714,
    "Ġeng": 1715,
    "Ġprovid": 1716,
    "ished": 1717,
    "ĠTechnology": 1718,
    "Ġemotion": 1719,
    "Ġcompleted": 1720,
    "Ġrequirements": 1721,
    "aluation": 1722,
    "Ġthought": 1723,
    "Ġdeploy": 1724,
    "ĠDelhi": 1725,
    "Ġimportant": 1726,
    "Ġtechnologies": 1727,
    "alt": 1728,
    "ale": 1729,
    "Ġent": 1730,
    "alam": 1731,
    "ench": 1732,
    "Ġpay": 1733,
    "Ġsur": 1734,
    "Ġstat": 1735,
    "ĠList": 1736,
    "ument": 1737,
    "urate": 1738,
    "ĠCity": 1739,
    "Ġmodeling": 1740,
    "Ġprec": 1741,
    "Ġreally": 1742,
    "Ġperform": 1743,
    "Ġachieved": 1744,
    "Ġarchitectures": 1745,
    "puter": 1746,
    "API": 1747,
    "Ġquery": 1748,
    "Ġlanguage": 1749,
    "ĠTerrit": 1750,
    "Ġexample": 1751,
    "Ġaccurate": 1752,
    "be": 1753,
    "mu": 1754,
    "IN": 1755,
    "ML": 1756,
    "Ġsw": 1757,
    "eng": 1758,
    "how": 1759,
    "aur": 1760,
    "Ġfun": 1761,
    "ivid": 1762,
    "Ġchar": 1763,
    "Ġunt": 1764,
    "pos": 1765,
    "aware": 1766,
    "Ġproduct": 1767,
    "ĠThrough": 1768,
    "Ġpersonality": 1769,
    "Ġachieving": 1770,
    "ĠJoh": 1771,
    "Ġnetwork": 1772,
    "Ġimprovements": 1773,
    "ĠEnglish": 1774,
    "ĠTransform": 1775,
    "ampionship": 1776,
    "ism": 1777,
    "cre": 1778,
    "Ġreal": 1779,
    "Ġrest": 1780,
    "Ġlot": 1781,
    "und": 1782,
    "ĠBe": 1783,
    "ither": 1784,
    "iving": 1785,
    "Ġstarts": 1786,
    "tok": 1787,
    "aka": 1788,
    "ĠFace": 1789,
    "Ġsign": 1790,
    "Ġlaw": 1791,
    "Ġseries": 1792,
    "astically": 1793,
    "Ġinstr": 1794,
    "Ġtracking": 1795,
    "Ġconsidered": 1796,
    "ugmented": 1797,
    "enchmark": 1798,
    "Ġprecision": 1799,
    "ĠComputer": 1800,
    "na": 1801,
    "de": 1802,
    "ern": 1803,
    "Ġtok": 1804,
    "ĠThat": 1805,
    "Ġsol": 1806,
    "ĠMur": 1807,
    "thing": 1808,
    "Ġsum": 1809,
    "ĠOp": 1810,
    "Ġinte": 1811,
    "cept": 1812,
    "Ġconversation": 1813,
    "Ġreduction": 1814,
    "Ġreason": 1815,
    "ails": 1816,
    "Ġsave": 1817,
    "Ġpract": 1818,
    "Ġseasoned": 1819,
    "ocker": 1820,
    "Ġlatency": 1821,
    "Ġretrie": 1822,
    "Ġpublic": 1823,
    "Ġmarket": 1824,
    "Ġlargest": 1825,
    "Ġresponses": 1826,
    "ugging": 1827,
    "Ġrelevant": 1828,
    "Ġbehavioral": 1829,
    "Ġevaluation": 1830,
    "Ġuntil": 1831,
    "Ġdrastically": 1832,
    "cc": 1833,
    "ming": 1834,
    "Ġwar": 1835,
    "Low": 1836,
    "cle": 1837,
    "ove": 1838,
    "Ġgen": 1839,
    "ĠChe": 1840,
    "ĠAnd": 1841,
    "ĠBl": 1842,
    "iver": 1843,
    "Ġconf": 1844,
    "Ġstand": 1845,
    "ĠOm": 1846,
    "ĠFast": 1847,
    "Ġsoon": 1848,
    "ĠLLMs": 1849,
    "Rank": 1850,
    "ĠNational": 1851,
    "Ġbuild": 1852,
    "Ġterm": 1853,
    "Ġready": 1854,
    "etrie": 1855,
    "Ġproficient": 1856,
    "Ġinterest": 1857,
    "Ġpersonalized": 1858,
    "joy": 1859,
    "Ġoffline": 1860,
    "Ġhistory": 1861,
    "Ġfreeze": 1862,
    "Ġschool": 1863,
    "Ġcelebrates": 1864,
    "ĠRupe": 1865,
    "ield": 1866,
    "Think": 1867,
    "Ġpredic": 1868,
    "Ġdocuments": 1869,
    "achelor": 1870,
    "ĠClassify": 1871,
    "Ġsubset": 1872,
    "Ġdeploying": 1873,
    "Ġtokens": 1874,
    "Ġ~": 1875,
    "AK": 1876,
    "TU": 1877,
    "itN": 1878,
    "asing": 1879,
    "ases": 1880,
    "ĠSe": 1881,
    "Ġlit": 1882,
    "Ġref": 1883,
    "dul": 1884,
    "vern": 1885,
    "Ġmein": 1886,
    "haz": 1887,
    "Ġsever": 1888,
    "ature": 1889,
    "Ġsuc": 1890,
    "ĠCore": 1891,
    "angC": 1892,
    "QLoRA": 1893,
    "tuned": 1894,
    "Ġcontin": 1895,
    "ĠGeneration": 1896,
    "Ġthose": 1897,
    "aptation": 1898,
    "apters": 1899,
    "ĠUnhone": 1900,
    "Ġbackend": 1901,
    "Ġparam": 1902,
    "Ġways": 1903,
    "Ġmoney": 1904,
    "ĠTechnical": 1905,
    "ĠLatency": 1906,
    "ĠCPUs": 1907,
    "ĠDroup": 1908,
    "Ġbanaye": 1909,
    "Ġpositive": 1910,
    "Ġjaise": 1911,
    "lama": 1912,
    "Ġspecializing": 1913,
    "iabad": 1914,
    "ĠSmt": 1915,
    "ĠPerple": 1916,
    "ĠQuantization": 1917,
    "ĠWorld": 1918,
    "speed": 1919,
    "Ġprofiling": 1920,
    "Tech": 1921,
    "urope": 1922,
    "ĠKalam": 1923,
    "ĠTerritories": 1924,
    "INR": 1925,
    "MLU": 1926,
    "ĠThroughput": 1927,
    "ĠTransformers": 1928,
    "tokens": 1929,
    "Augmented": 1930,
    "benchmark": 1931,
    "ĠMurmu": 1932,
    "ĠDocker": 1933,
    "Ġretrieve": 1934,
    "ĠHugging": 1935,
    "ĠOmni": 1936,
    "ĠFastAPI": 1937,
    "etrieval": 1938,
    "ĠRupee": 1939,
    "Thinker": 1940,
    "Ġpredicts": 1941,
    "ĠBachelor": 1942,
    "AKTU": 1943,
    "itNet": 1944,
    "ĠAbdul": 1945,
    "ĠGhaz": 1946,
    "angChain": 1947,
    "ĠAdaptation": 1948,
    "adapters": 1949,
    "Ġparameters": 1950,
    "ĠDroupadi": 1951,
    "ĠLlama": 1952,
    "ĠPerplexity": 1953,
    "ĠMMLU": 1954,
    "Retrieval": 1955,
    "ĠOmniThinker": 1956,
    "ĠTraitNet": 1957,
    "ĠGhaziabad": 1958,
    "ĠLangChain": 1959,
    "ao": 1960,
    "gy": 1961,
    "ĠX": 1962,
    "ĠSw": 1963,
    "iam": 1964,
    "ĠPh": 1965,
    "Ġequ": 1966,
    "Ġsun": 1967,
    "Ġ199": 1968,
    "Ġjust": 1969,
    "Ġcult": 1970,
    "Ġactiv": 1971,
    "enef": 1972,
    "Ġmaster": 1973,
    "Ġeconom": 1974,
    "ĠJohn": 1975,
    "ĠEurope": 1976,
    "Ġ'": 1977,
    "Ġsing": 1978,
    "Ġob": 1979,
    "Ġed": 1980,
    "ination": 1981,
    "ĠCar": 1982,
    "ada": 1983,
    "uting": 1984,
    "Ġfive": 1985,
    "Ġwithout": 1986,
    "Ġcha": 1987,
    "Ġmove": 1988,
    "ĠOn": 1989,
    "Ġlast": 1990,
    "Ġmult": 1991,
    "Ġdifference": 1992,
    "Ġclearly": 1993,
    "Ġprofession": 1994,
    "ek": 1995,
    "man": 1996,
    "oun": 1997,
    "Ġsom": 1998,
    "ĠId": 1999,
    "ream": 2000,
    "Ġarea": 2001,
    "rain": 2002,
    "air": 2003,
    "ĠRed": 2004,
    "ĠFrom": 2005,
    "Ġorig": 2006,
    "Ġold": 2007,
    "ĠOf": 2008,
    "Ġtalking": 2009,
    "aking": 2010,
    "Ġlisten": 2011,
    "Ġlevel": 2012,
    "bye": 2013,
    "dition": 2014,
    "Ġcities": 2015,
    "Ġgrow": 2016,
    "Ġhouse": 2017,
    "Ġfootball": 2018,
    "Ġdesigned": 2019,
    "Ġcharact": 2020,
    "Ġsuccess": 2021,
    "Ġsn": 2022,
    "Ġint": 2023,
    "Ġve": 2024,
    "nam": 2025,
    "ott": 2026,
    "Ġdra": 2027,
    "Ġest": 2028,
    "Ġpri": 2029,
    "ĠJe": 2030,
    "ware": 2031,
    "Ġeven": 2032,
    "Ġserv": 2033,
    "ĠHowever": 2034,
    "Ġ—": 2035,
    "Ġappro": 2036,
    "ĠLeague": 2037,
    "Ġbeaut": 2038,
    "Ġdaily": 2039,
    "Ġenjoy": 2040,
    "ĊĊ": 2041,
    "20": 2042,
    "ĠWar": 2043,
    "ense": 2044,
    "ĠCl": 2045,
    "ĠGl": 2046,
    "ĠRest": 2047,
    "Ġabhinav": 2048,
    "cial": 2049,
    "ains": 2050,
    "Ġopt": 2051,
    "rick": 2052,
    "Ġfish": 2053,
    "ĠĠĠĠ": 2054,
    "Ġunder": 2055,
    "Ġeveryday": 2056,
    "Ġbusy": 2057,
    "Ġemotions": 2058,
    "Ġpercu": 2059,
    "Ġcountries": 2060,
    "Ġfriendly": 2061,
    "Ġinfl": 2062,
    "ĠIdentify": 2063,
    "Ġtre": 2064,
    "llo": 2065,
    "rib": 2066,
    "ĠRe": 2067,
    "ential": 2068,
    "Ġoper": 2069,
    "Ġ197": 2070,
    "Ġcoll": 2071,
    "ooth": 2072,
    "ĠYork": 2073,
    "Phone": 2074,
    "Ġasking": 2075,
    "Ġearly": 2076,
    "tty": 2077,
    "Ġgovern": 2078,
    "Ġseveral": 2079,
    "Ġbenef": 2080,
    "Ġpercussion": 2081,
    "ler": 2082,
    "ring": 2083,
    "icy": 2084,
    "ĠAre": 2085,
    "ement": 2086,
    "Ġprog": 2087,
    "ĠRel": 2088,
    "ective": 2089,
    "Ġnote": 2090,
    "itions": 2091,
    "Ġfour": 2092,
    "Ġpres": 2093,
    "Ġcompet": 2094,
    "Ġresult": 2095,
    "Ġdepend": 2096,
    "Ġcurious": 2097,
    "Ġtypes": 2098,
    "Ġpercent": 2099,
    "Ġelect": 2100,
    "Ġchildren": 2101,
    "board": 2102,
    "Ġsmooth": 2103,
    "ran": 2104,
    "Ġbi": 2105,
    "Ġfre": 2106,
    "Ġred": 2107,
    "ĠDo": 2108,
    "Ġmill": 2109,
    "iew": 2110,
    "Ġnear": 2111,
    "Ġword": 2112,
    "Ġbase": 2113,
    "akes": 2114,
    "Ġaction": 2115,
    "Ġspecies": 2116,
    "wards": 2117,
    "Ġgiven": 2118,
    "Ġcommun": 2119,
    "Ġfeelings": 2120,
    "Ġorgan": 2121,
    "Ġtreating": 2122,
    "Ġwhether": 2123,
    "Ġcaus": 2124,
    "ĠThanks": 2125,
    "Ġeither": 2126,
    "Ġorigin": 2127,
    "ĠHello": 2128,
    "by": 2129,
    "ined": 2130,
    "Ġins": 2131,
    "ode": 2132,
    "ĠPar": 2133,
    "Ġdel": 2134,
    "uck": 2135,
    "Ġland": 2136,
    "Ġval": 2137,
    "Ġindu": 2138,
    "Ġfew": 2139,
    "Ġtour": 2140,
    "Ġpark": 2141,
    "mind": 2142,
    "Ġplayers": 2143,
    "Ġhelping": 2144,
    "Ġchats": 2145,
    "Ġwhenever": 2146,
    "iforn": 2147,
    "Ġagainst": 2148,
    "Ġtypically": 2149,
    "Ġusually": 2150,
    "ĠConvers": 2151,
    "Ġorder": 2152,
    "Ġavail": 2153,
    "ĠHope": 2154,
    "Ġhaving": 2155,
    "ĠPretty": 2156,
    "Ġtr": 2163,
    "jhe": 2164,
    "ala": 2165,
    "tal": 2166,
    "less": 2167,
    "ley": 2168,
    "ĠWe": 2169,
    "ids": 2170,
    "Ġmere": 2171,
    "leep": 2172,
    "Ġmight": 2173,
    "Ġrefer": 2174,
    "ĠKing": 2175,
    "ober": 2176,
    "arning": 2177,
    "Ġbull": 2178,
    "ĠBye": 2179,
    "Ġthings": 2180,
    "Ġunhone": 2181,
    "ĠCalm": 2182,
    "Ġweather": 2183,
    "Ġbanaya": 2184,
    "axing": 2185,
    "Ġappe": 2186,
    "Ġthoughtful": 2187,
    "Ġindivid": 2188,
    "ĠGoodbye": 2189,
    "ĠGlad": 2190,
    "Ġindust": 2191,
    "Ġmastermind": 2192,
    "ĠConversations": 2193,
    "Ġ👋": 2194,
    "Ġ☀": 2195,
    "️": 2196,
    "Ġ🌙": 2197,
    "Ġ😊": 2198,
    "Ġmujhe": 2199,
    "ĠRelaxing": 2200,
    "Ġ☀️": 2201,
    "mp": 2202,
    "ki": 2203,
    "eh": 2204,
    "gg": 2205,
    "Ġ$": 2206,
    "Ġmat": 2207,
    "Ġho": 2208,
    "ĠAm": 2209,
    "ave": 2210,
    "Ġput": 2211,
    "Ġaud": 2212,
    "Ġwide": 2213,
    "•": 2214,
    "ians": 2215,
    "Ġplayer": 2216,
    "Ġcontro": 2217,
    "Ġsize": 2218,
    "Ġmiles": 2219,
    "Ġsupport": 2220,
    "Ġfinancial": 2221,
    "Ġitems": 2222,
    "ifornia": 2223,
    "ka": 2224,
    "su": 2225,
    "ety": 2226,
    "inct": 2227,
    "aya": 2228,
    "olo": 2229,
    "ĠPr": 2230,
    "uel": 2231,
    "Ġwhy": 2232,
    "ift": 2233,
    "ĠFin": 2234,
    "Ġlight": 2235,
    "Ġqual": 2236,
    "Ġbab": 2237,
    "Ġshort": 2238,
    "Ġside": 2239,
    "–": 2240,
    "lease": 2241,
    "ored": 2242,
    "ĠAust": 2243,
    "Ġreference": 2244,
    "Ġsaf": 2245,
    "Ġsoft": 2246,
    "Ġbecame": 2247,
    "ches": 2248,
    "Ġbird": 2249,
    "Ġacross": 2250,
    "Ġrisk": 2251,
    "Ġhapp": 2252,
    "ĠNorth": 2253,
    "lished": 2254,
    "Ġinstrument": 2255,
    "Ġeverything": 2256,
    "Ġdetails": 2257,
    "Ġprofessional": 2258,
    "gen": 2259,
    "Ġann": 2260,
    "ales": 2261,
    "Ġdon": 2262,
    "Ġki": 2263,
    "Ġhim": 2264,
    "ĠPot": 2265,
    "ĠBra": 2266,
    "thers": 2267,
    "irm": 2268,
    "ection": 2269,
    "Ġhead": 2270,
    "oci": 2271,
    "Ġcho": 2272,
    "Ġless": 2273,
    "ĠBrit": 2274,
    "orary": 2275,
    "Ġmonth": 2276,
    "Ġgroup": 2277,
    "Ġsports": 2278,
    "Ġgreen": 2279,
    "Ġtimes": 2280,
    "Ġprimary": 2281,
    "Ġactivities": 2282,
    "Ġpercentage": 2283,
    "Ġlearning": 2284,
    "Ġ*": 2285,
    "pr": 2286,
    "ov": 2287,
    "ann": 2288,
    "rew": 2289,
    "itar": 2290,
    "ĠSan": 2291,
    "ration": 2292,
    "ĠCent": 2293,
    "ceed": 2294,
    "ays": 2295,
    "Ġpot": 2296,
    "Ġstre": 2297,
    "ĠThese": 2298,
    "here": 2299,
    "Ġ17": 2300,
    "Ġ12": 2301,
    "epar": 2302,
    "ĠEx": 2303,
    "ipp": 2304,
    "”": 2305,
    "Ġmust": 2306,
    "comm": 2307,
    "fact": 2308,
    "Ġcompan": 2309,
    "Ġintern": 2310,
    "though": 2311,
    "Ġrecent": 2312,
    "ources": 2313,
    "ashing": 2314,
    "Ġtemper": 2315,
    "ĠHarry": 2316,
    "Ġmovies": 2317,
    "Ġanother": 2318,
    "Ġgolf": 2319,
    "Ġpresent": 2320,
    "Ġtotal": 2321,
    "ĠCalifornia": 2322,
    "sw": 2323,
    "Ġ{": 2324,
    "ana": 2325,
    "Ġtit": 2326,
    "Ġes": 2327,
    "ĠAll": 2328,
    "ners": 2329,
    "amb": 2330,
    "ĠPe": 2331,
    "key": 2332,
    "arth": 2333,
    "ium": 2334,
    "ulation": 2335,
    "iful": 2336,
    "ĠChin": 2337,
    "oph": 2338,
    "Ġdeb": 2339,
    "ared": 2340,
    "Ġmanag": 2341,
    "Ġlater": 2342,
    "Ġpick": 2343,
    "Ġclass": 2344,
    "Ġamong": 2345,
    "Ġbecome": 2346,
    "ences": 2347,
    "Ġchange": 2348,
    "Ġpassage": 2349,
    "ffee": 2350,
    "ĠGoogle": 2351,
    "Ġstatus": 2352,
    "Ġsingle": 2353,
    "Ġweek": 2354,
    "Ġavailable": 2355,
    "Ġconfirm": 2356,
    "sc": 2357,
    "ison": 2358,
    "Ġcor": 2359,
    "Ġwat": 2360,
    "Ġinf": 2361,
    "Ġel": 2362,
    "amm": 2363,
    "ĠCo": 2364,
    "Ġtool": 2365,
    "ides": 2366,
    "ape": 2367,
    "ĠPC": 2368,
    "ump": 2369,
    "ately": 2370,
    "hai": 2371,
    "ĠOk": 2372,
    "ĠOr": 2373,
    "Ġhard": 2374,
    "Ġfru": 2375,
    "Ġlove": 2376,
    "Ġdescri": 2377,
    "Ġamount": 2378,
    "aptop": 2379,
    "Ġsounds": 2380,
    "ĠFootball": 2381,
    "ennis": 2382,
    "ĠSouth": 2383,
    "Ġdevelopment": 2384,
    "Ġphys": 2385,
    "Ġcentury": 2386,
    "Ġpolit": 2387,
    "Ġindividual": 2388,
    "Ġlaptop": 2389,
    "me": 2390,
    "yd": 2391,
    "10": 2392,
    "ats": 2393,
    "Ġsit": 2394,
    "llig": 2395,
    "Ġdig": 2396,
    "Ġwithin": 2397,
    "ĠWest": 2398,
    "ĠNe": 2399,
    "Ġconst": 2400,
    "ept": 2401,
    "Ġsha": 2402,
    "ĠWill": 2403,
    "ipul": 2404,
    "ours": 2405,
    "Ġgoal": 2406,
    "Ġ195": 2407,
    "Ġstarted": 2408,
    "Ġspend": 2409,
    "Ġcook": 2410,
    "lock": 2411,
    "fferson": 2412,
    "ways": 2413,
    "Ġ2022": 2414,
    "ĠNetwork": 2415,
    "Ġcompany": 2416,
    "ified": 2417,
    "Ġclose": 2418,
    "Ġvarious": 2419,
    "ertain": 2420,
    "Ġbegin": 2421,
    "Ġmembers": 2422,
    "ĠIncre": 2423,
    "Ġservices": 2424,
    "Ġbeautiful": 2425,
    ".\"": 2426,
    "ane": 2427,
    "gon": 2428,
    "eor": 2429,
    "oud": 2430,
    "fic": 2431,
    "let": 2432,
    "yle": 2433,
    "eted": 2434,
    "Pro": 2435,
    "imb": 2436,
    "test": 2437,
    "Ġstep": 2438,
    "ateg": 2439,
    "Ġfall": 2440,
    "ured": 2441,
    "Ġcomb": 2442,
    "Ġplus": 2443,
    "rodu": 2444,
    "side": 2445,
    "arent": 2446,
    "mber": 2447,
    "thern": 2448,
    "Ġsport": 2449,
    "Ġdue": 2450,
    "Ġwind": 2451,
    "Ġ30": 2452,
    "ĠOne": 2453,
    "Ġpresident": 2454,
    "ĠGerm": 2455,
    "Ġleft": 2456,
    "Ġaccount": 2457,
    "Ġfamous": 2458,
    "ĠAPI": 2459,
    "Ġcalculate": 2460,
    "iction": 2461,
    "Ġgenerally": 2462,
    "Ġfull": 2463,
    "ĠFrance": 2464,
    "Ġstruct": 2465,
    "Ġpoints": 2466,
    "Ġfactors": 2467,
    "ĠCanada": 2468,
    "Ġmillion": 2469,
    "ĠBritish": 2470,
    "Ġtemporary": 2471,
    "Ġmanipul": 2472,
    "Project": 2473,
    "ger": 2474,
    "Ġcr": 2475,
    "hor": 2476,
    "ico": 2477,
    "owed": 2478,
    "Ġbas": 2479,
    "Ġdom": 2480,
    "Ġna": 2481,
    "ĠShe": 2482,
    "Ġlow": 2483,
    "rop": 2484,
    "itch": 2485,
    "Ġhot": 2486,
    "hod": 2487,
    "ĠLa": 2488,
    "ĠMon": 2489,
    "ended": 2490,
    "ected": 2491,
    "Ġlet": 2492,
    "ette": 2493,
    "Ġfire": 2494,
    "ensive": 2495,
    "Ġevent": 2496,
    "Ġimpact": 2497,
    "Ġmaking": 2498,
    "xtract": 2499,
    "Ġ–": 2500,
    "Ġhigher": 2501,
    "aches": 2502,
    "Ġdrink": 2503,
    "Ġblue": 2504,
    "ĠCreating": 2505,
    "Ġsince": 2506,
    "Ġdogs": 2507,
    "Ġlaunching": 2508,
    "ĠOpening": 2509,
    "Ġocc": 2510,
    "Ġmultip": 2511,
    "Ġcharacter": 2512,
    "Ġproceed": 2513,
    "ufact": 2514,
    "Ġcompanies": 2515,
    "ashington": 2516,
    "Ġconfirmation": 2517,
    "ĠBhai": 2518,
    "ĠOkay": 2519,
    "ĠJefferson": 2520,
    "bs": 2521,
    "ym": 2522,
    "erc": 2523,
    "ato": 2524,
    "ata": 2525,
    "ining": 2526,
    "Ġpc": 2527,
    "atic": 2528,
    "amed": 2529,
    "Ġkh": 2530,
    "arur": 2531,
    "Ġbig": 2532,
    "Ġid": 2533,
    "Ġaap": 2534,
    "bum": 2535,
    "aves": 2536,
    "ĠFet": 2537,
    "Ġdoon": 2538,
    "Ġgive": 2539,
    "ush": 2540,
    "Ġalive": 2541,
    "Ġleg": 2542,
    "Ġkaro": 2543,
    "Ġkaroon": 2544,
    "aces": 2545,
    "Ġpak": 2546,
    "Ġsong": 2547,
    "ĠWhile": 2548,
    "Ġhisab": 2549,
    "txt": 2550,
    "ĠVir": 2551,
    "ĠBattery": 2552,
    "Ġlocated": 2553,
    "ĠKya": 2554,
    "Ġrahi": 2555,
    "hiye": 2556,
    "Ġsaari": 2557,
    "Ġtype": 2558,
    "Ġstrong": 2559,
    "ahan": 2560,
    "Ġgames": 2561,
    "ability": 2562,
    "Ġdirectory": 2563,
    "ĠThik": 2564,
    "Ġclock": 2565,
    "Ġmovie": 2566,
    "Ġgoogle": 2567,
    "Ġblack": 2568,
    "ĠLaunching": 2569,
    "ĠCalculation": 2570,
    "ĠCalculator": 2571,
    "ĠAwaz": 2572,
    "Ġawaz": 2573,
    "Ġbadhao": 2574,
    "Ġkitni": 2575,
    "ĠListing": 2576,
    "ĠChampionship": 2577,
    "Ġkarna": 2578,
    "ĠChecking": 2579,
    "Ġbanao": 2580,
    "Ġculture": 2581,
    "ĠMuting": 2582,
    "Ġchala": 2583,
    "ĠYeh": 2584,
    "Ġnaya": 2585,
    "ĠPotter": 2586,
    "Ġcoffee": 2587,
    "Ġintellig": 2588,
    "ĠIncreasing": 2589,
    "Ġmanipulative": 2590,
    "Ġnaam": 2591,
    "Ġmethod": 2592,
    "Ġmanufact": 2593,
    "Ġkholo": 2594,
    "ĠZarur": 2595,
    "Ġaapki": 2596,
    "ĠFetching": 2597,
    "Ġpakka": 2598,
    "Ġchahiye": 2599,
    "Ġyahan": 2600,
    "\",": 2601,
    "\".": 2602,
    "Ġ=": 2603,
    "ert": 2604,
    "inc": 2605,
    "ĠSu": 2606,
    "ctor": 2607,
    "ote": 2608,
    "Ġoil": 2609,
    "elf": 2610,
    "Ġever": 2611,
    "ĠSun": 2612,
    "une": 2613,
    "ĠSha": 2614,
    "Ġweight": 2615,
    "Ġvill": 2616,
    "Ġable": 2617,
    "ips": 2618,
    "ired": 2619,
    "Ġfore": 2620,
    "Ġpartic": 2621,
    "amples": 2622,
    "lands": 2623,
    "Ġaward": 2624,
    "Ġexperience": 2625,
    "Ġproble": 2626,
    "Ġrepres": 2627,
    "Ġtrip": 2628,
    "Ġcolors": 2629,
    "Ġcolor": 2630,
    "ĠAfric": 2631,
    "Ġanimals": 2632,
    "Ġanimal": 2633,
    "Ġswim": 2634,
    "ĠEuropean": 2635,
    "Ġobject": 2636,
    "Ġeduc": 2637,
    "Ġvalue": 2638,
    "Ġothers": 2639,
    "ficult": 2640,
    "ĠExtract": 2641,
    "ĠWashington": 2642,
    "Ġdifficult": 2643,
    "the": 2644,
    "ister": 2645,
    "Ġbal": 2646,
    "Ġfr": 2647,
    "ĠSo": 2648,
    "lect": 2649,
    "ication": 2650,
    "Ġrece": 2651,
    "Ġsay": 2652,
    "iod": 2653,
    "apan": 2654,
    "aper": 2655,
    "Ġonce": 2656,
    "ĠMay": 2657,
    "ĠBr": 2658,
    "ĠBo": 2659,
    "ago": 2660,
    "iron": 2661,
    "ules": 2662,
    "Ġconn": 2663,
    "Ġdog": 2664,
    "Ġmeas": 2665,
    "Ġexist": 2666,
    "rite": 2667,
    "ĠGold": 2668,
    "Ġdays": 2669,
    "Ġaff": 2670,
    "ĠPark": 2671,
    "Ġquick": 2672,
    "Ġbond": 2673,
    "Ġsubject": 2674,
    "Ġcause": 2675,
    "Ġplants": 2676,
    "Ġaway": 2677,
    "Ġposition": 2678,
    "isco": 2679,
    "Ġterms": 2680,
    "Ġlittle": 2681,
    "nament": 2682,
    "Ġgovernment": 2683,
    "Ġindustry": 2684,
    "Ġcontrol": 2685,
    "ĠPlease": 2686,
    "Ġassoci": 2687,
    "ĠGeor": 2688,
    "Ġnamed": 2689,
    "Ġalbum": 2690,
    "ai": 2691,
    "á": 2692,
    "zer": 2693,
    "Ġten": 2694,
    "por": 2695,
    "Ġbit": 2696,
    "eds": 2697,
    "oman": 2698,
    "Ġmom": 2699,
    "ĠTo": 2700,
    "ĠTom": 2701,
    "ĠSer": 2702,
    "Ġareas": 2703,
    "iger": 2704,
    "Ġread": 2705,
    "ĠMic": 2706,
    "ĠMe": 2707,
    "els": 2708,
    "Ġprot": 2709,
    "Ġ14": 2710,
    "ects": 2711,
    "ivil": 2712,
    "Ġplat": 2713,
    "Ġrace": 2714,
    "Ġhold": 2715,
    "ances": 2716,
    "Ġcompon": 2717,
    "Ġwhite": 2718,
    "Ġrock": 2719,
    "Ġfilm": 2720,
    "Ġemp": 2721,
    "Ġrunning": 2722,
    "Ġ“": 2723,
    "Ġinvol": 2724,
    "ellow": 2725,
    "Ġthird": 2726,
    "Ġfriends": 2727,
    "Ġhistor": 2728,
    "Ġleague": 2729,
    "ĠFranc": 2730,
    "Ġmodern": 2731,
    "Ġsumm": 2732,
    "Ġtradition": 2733,
    "ĠiPhone": 2734,
    "Ġbenefits": 2735,
    "ĠAustral": 2736,
    "Ġguitar": 2737,
    "exico": 2738,
    "af": 2739,
    "sh": 2740,
    "sen": 2741,
    "rist": 2742,
    "cean": 2743,
    "ots": 2744,
    "ider": 2745,
    "idd": 2746,
    "Ġbeer": 2747,
    "ĠMan": 2748,
    "ĠPri": 2749,
    "Ġlif": 2750,
    "Ġprom": 2751,
    "ĠEl": 2752,
    "Ġwood": 2753,
    "illed": 2754,
    "ived": 2755,
    "Ġmach": 2756,
    "ably": 2757,
    "Ġpast": 2758,
    "astic": 2759,
    "Ġyoung": 2760,
    "Ġprev": 2761,
    "ney": 2762,
    "Ġvac": 2763,
    "ustom": 2764,
    "ief": 2765,
    "Ġstory": 2766,
    "Ġkind": 2767,
    "ĠInst": 2768,
    "Ġplaying": 2769,
    "Ġaccess": 2770,
    "ording": 2771,
    "arily": 2772,
    "Ġroom": 2773,
    "Ġsimil": 2774,
    "Ġnature": 2775,
    "Ġborn": 2776,
    "ĠMost": 2777,
    "Ġcommonly": 2778,
    "Ġreleased": 2779,
    "Ġbooks": 2780,
    "Ġpoint": 2781,
    "ĠBlack": 2782,
    "Ġprovided": 2783,
    "Ġpractice": 2784,
    "Ġveget": 2785,
    "Ġtrees": 2786,
    "Ġprogram": 2787,
    "Ġview": 2788,
    "Ġwords": 2789,
    "Ġbaby": 2790,
    "Ġsepar": 2791,
    "Ġtennis": 2792,
    "eptember": 2793,
    "Ġalways": 2794,
    "Ġparent": 2795,
    "Ġmultiple": 2796,
    "Ġperiod": 2797,
    "za": 2798,
    "ina": 2799,
    "Ġbat": 2800,
    "ues": 2801,
    "ges": 2802,
    "row": 2803,
    "ĠGr": 2804,
    "Ġhig": 2805,
    "ĠBar": 2806,
    "Ġsqu": 2807,
    "Ġ11": 2808,
    "ĠNet": 2809,
    "ĠEn": 2810,
    "Ġrate": 2811,
    "Ġseen": 2812,
    "Ġcomes": 2813,
    "ĠSpe": 2814,
    "Ġoffer": 2815,
    "ards": 2816,
    "tein": 2817,
    "Ġage": 2818,
    "Ġ193": 2819,
    "ĠOff": 2820,
    "aterial": 2821,
    "ological": 2822,
    "Ġroad": 2823,
    "Ġflow": 2824,
    "Ġformat": 2825,
    "Ġspecific": 2826,
    "Ġexpl": 2827,
    "aylor": 2828,
    "Ġproduced": 2829,
    "ouble": 2830,
    "ĠJames": 2831,
    "Ġbegan": 2832,
    "etimes": 2833,
    "ĠAfter": 2834,
    "olution": 2835,
    "ething": 2836,
    "Ġliving": 2837,
    "ĠPhil": 2838,
    "Ġgrowth": 2839,
    "Ġinflu": 2840,
    "Ġresults": 2841,
    "Ġtemperature": 2842,
    "Ġdigital": 2843,
    "ĠWrite": 2844,
    "Ġcustom": 2845,
    "Ġhighest": 2846,
    "BA": 2847,
    "gre": 2848,
    "itor": 2849,
    "Ġhom": 2850,
    "dom": 2851,
    "Ġnon": 2852,
    "Ġled": 2853,
    "ental": 2854,
    "use": 2855,
    "room": 2856,
    "Ġkm": 2857,
    "oid": 2858,
    "Ġlim": 2859,
    "utes": 2860,
    "Ġdem": 2861,
    "Ġmean": 2862,
    "uture": 2863,
    "Ġplant": 2864,
    "Ġexc": 2865,
    "Ġfast": 2866,
    "ĠPort": 2867,
    "Ġrice": 2868,
    "Ġpie": 2869,
    "rypt": 2870,
    "ĠLake": 2871,
    "Ġdone": 2872,
    "Ġnext": 2873,
    "Ġcomput": 2874,
    "Ġsoap": 2875,
    "ables": 2876,
    "Ġcareer": 2877,
    "ĠEngland": 2878,
    "Ġunivers": 2879,
    "Ġposs": 2880,
    "Ġfinal": 2881,
    "Ġtechnology": 2882,
    "Ġnames": 2883,
    "Ġdied": 2884,
    "Ġaddition": 2885,
    "Ġbelow": 2886,
    "Ġlanguages": 2887,
    "Ġleading": 2888,
    "Ġturn": 2889,
    "ĠPlay": 2890,
    "Ġchampionship": 2891,
    "Ġreasons": 2892,
    "Ġstandard": 2893,
    "cially": 2894,
    "Ġsleep": 2895,
    "Ġextinct": 2896,
    "Ġsafe": 2897,
    "Ġmonths": 2898,
    "Ġrecomm": 2899,
    "ĠWilliam": 2900,
    "Ġcertain": 2901,
    "Ġbulleted": 2902,
    "ollette": 2903,
    "ĠVirgin": 2904,
    "ĠJapan": 2905,
    "Ġmaterial": 2906,
    "Ġsomething": 2907,
    "do": 2908,
    "é": 2909,
    "PT": 2910,
    "pan": 2911,
    "alf": 2912,
    "Ġfo": 2913,
    "ĠAct": 2914,
    "Ġmot": 2915,
    "zil": 2916,
    "Ġ13": 2917,
    "Ġsec": 2918,
    "Ġcome": 2919,
    "Ġwalk": 2920,
    "Ġport": 2921,
    "ĠJu": 2922,
    "osed": 2923,
    "utions": 2924,
    "200": 2925,
    "verage": 2926,
    "Ġjack": 2927,
    "ineering": 2928,
    "Ġround": 2929,
    "rench": 2930,
    "Ġspace": 2931,
    "ĠFirst": 2932,
    "estern": 2933,
    "Ġmember": 2934,
    "Ġswe": 2935,
    "Ġbring": 2936,
    "Ġquestion": 2937,
    "Ġmix": 2938,
    "Ġvalu": 2939,
    "Ġcats": 2940,
    "Ġreturn": 2941,
    "Ġautom": 2942,
    "Ġtransport": 2943,
    "Ġlooking": 2944,
    "Ġoppos": 2945,
    "Ġabove": 2946,
    "Ġeconomic": 2947,
    "Ġbrain": 2948,
    "Ġreferred": 2949,
    "Ġwidely": 2950,
    "Ġsoftware": 2951,
    "Ġresources": 2952,
    "Ġauthor": 2953,
    "icago": 2954,
    "ĠFrancisco": 2955,
    "ĠMexico": 2956,
    "Ġprimarily": 2957,
    "ĠNBA": 2958,
    "ty": 2959,
    "eb": 2960,
    "Ġ,": 2961,
    "Ġer": 2962,
    "int": 2963,
    "Ġfer": 2964,
    "ises": 2965,
    "gar": 2966,
    "aring": 2967,
    "eder": 2968,
    "edom": 2969,
    "ĠAt": 2970,
    "etc": 2971,
    "Ġess": 2972,
    "ĠGu": 2973,
    "ĠTur": 2974,
    "imal": 2975,
    "Ġstay": 2976,
    "ead": 2977,
    "ĠMor": 2978,
    "Ġmag": 2979,
    "quent": 2980,
    "Ġdest": 2981,
    "avy": 2982,
    "Ġri": 2983,
    "Ġcond": 2984,
    "cket": 2985,
    "ĠEd": 2986,
    "ĠMart": 2987,
    "Ġtele": 2988,
    "ĠName": 2989,
    "Ġchall": 2990,
    "Ġleast": 2991,
    "asters": 2992,
    "Ġvide": 2993,
    "Ġgard": 2994,
    "ĠAng": 2995,
    "Ġ100": 2996,
    "Ġproper": 2997,
    "Ġmind": 2998,
    "Ġens": 2999,
    "ĠJack": 3000,
    "Ġchang": 3001,
    "anger": 3002,
    "Ġcool": 3003,
    "Ġglo": 3004,
    "icated": 3005,
    "Ġtravel": 3006,
    "Ġenv": 3007,
    "Ġwild": 3008,
    "Ġenough": 3009,
    "ĠBased": 3010,
    "Ġuseful": 3011,
    "Ġflav": 3012,
    "Ġpost": 3013,
    "Ġhowever": 3014,
    "asket": 3015,
    "itting": 3016,
    "Ġcars": 3017,
    "oston": 3018,
    "Ġgetting": 3019,
    "Ġregard": 3020,
    "Ġattack": 3021,
    "ograph": 3022,
    "ĠCup": 3023,
    "Ġwritten": 3024,
    "Ġsalt": 3025,
    "Ġsummer": 3026,
    "Ġsuccessful": 3027,
    "Ġbott": 3028,
    "Ġestab": 3029,
    "ricket": 3030,
    "Ġbicy": 3031,
    "Ġegg": 3032,
    "ĠChina": 3033,
    "Ġpolitical": 3034,
    "Ġhours": 3035,
    "Ġoutside": 3036,
    "Ġintelligence": 3037,
    "Ġexamples": 3038,
    "Ġbalance": 3039,
    "ĠGeorge": 3040,
    "itzer": 3041,
    "Ġcivil": 3042,
    "Ġplatform": 3043,
    "Ġsimilar": 3044,
    "Ġparents": 3045,
    "Ġengineering": 3046,
    "ĠFrench": 3047,
    "Ġetc": 3048,
    "Ġenviron": 3049,
    "my": 3050,
    "pon": 3051,
    "Ġfit": 3052,
    "ones": 3053,
    "Ġmen": 3054,
    "Ġbar": 3055,
    "ĠTw": 3056,
    "Ġgas": 3057,
    "ams": 3058,
    "oles": 3059,
    "ĠBu": 3060,
    "irl": 3061,
    "ests": 3062,
    "Ġstri": 3063,
    "ĠRes": 3064,
    "ighter": 3065,
    "vate": 3066,
    "ops": 3067,
    "Ġrat": 3068,
    "Ġheld": 3069,
    "urity": 3070,
    "ĠGame": 3071,
    "chen": 3072,
    "ained": 3073,
    "Ġgear": 3074,
    "Ġprep": 3075,
    "ption": 3076,
    "Ġalong": 3077,
    "Ġsuper": 3078,
    "Ġlake": 3079,
    "rict": 3080,
    "Ġbecom": 3081,
    "face": 3082,
    "Ġoffice": 3083,
    "leball": 3084,
    "Ġthemsel": 3085,
    "Ġgoals": 3086,
    "Ġbox": 3087,
    "raft": 3088,
    "ondon": 3089,
    "Ġadvant": 3090,
    "Ġwinning": 3091,
    "Ġ2020": 3092,
    "ission": 3093,
    "ique": 3094,
    "Ġphil": 3095,
    "Ġbelie": 3096,
    "Ġdeterm": 3097,
    "Ġcancer": 3098,
    "Ġbrisk": 3099,
    "Ġmedia": 3100,
    "Ġfund": 3101,
    "ĠBlue": 3102,
    "Ġeconomy": 3103,
    "ĠOnce": 3104,
    "Ġlevels": 3105,
    "Ġsnow": 3106,
    "Ġdepending": 3107,
    "ctober": 3108,
    "Ġvariety": 3109,
    "Ġpublished": 3110,
    "swer": 3111,
    "ockey": 3112,
    "Ġvillage": 3113,
    "Ġrepresent": 3114,
    "Ġeducation": 3115,
    "Ġtournament": 3116,
    "Ġassociated": 3117,
    "ĠChrist": 3118,
    "Ġsometimes": 3119,
    "ĠBoston": 3120,
    "Ġthemselves": 3121,
    "ĠLondon": 3122,
    "ny": 3123,
    "14": 3124,
    "',": 3125,
    "bon": 3126,
    "for": 3127,
    "bal": 3128,
    "ding": 3129,
    "Ġpu": 3130,
    "Ġpen": 3131,
    "ged": 3132,
    "med": 3133,
    "llion": 3134,
    "ĠSen": 3135,
    "ston": 3136,
    "read": 3137,
    "ĠMal": 3138,
    "adem": 3139,
    "ums": 3140,
    "ĠHigh": 3141,
    "Ġlate": 3142,
    "Ġmass": 3143,
    "Ġdev": 3144,
    "Ġrain": 3145,
    "ipment": 3146,
    "Ġcold": 3147,
    "Ġprefer": 3148,
    "ĠColl": 3149,
    "Ġcase": 3150,
    "ĠState": 3151,
    "Ġreach": 3152,
    "ĠMount": 3153,
    "Ġupon": 3154,
    "ators": 3155,
    "Ġface": 3156,
    "Ġtree": 3157,
    "Ġevents": 3158,
    "Ġtable": 3159,
    "Ġrot": 3160,
    "pose": 3161,
    "Ġfeet": 3162,
    "onder": 3163,
    "ched": 3164,
    "ublic": 3165,
    "Ġnovel": 3166,
    "resh": 3167,
    "Ġapplic": 3168,
    "Ġdisc": 3169,
    "Ġexec": 3170,
    "Ġregion": 3171,
    "Ġvict": 3172,
    "Ġrange": 3173,
    "Ġ2021": 3174,
    "mier": 3175,
    "Ġfilms": 3176,
    "Ġmaintain": 3177,
    "Ġtoget": 3178,
    "Ġeasy": 3179,
    "Ġbrother": 3180,
    "Ġprovides": 3181,
    "Ġperformance": 3182,
    "Ġrestaur": 3183,
    "Ġsignific": 3184,
    "Ġbaseball": 3185,
    "Ġtakes": 3186,
    "Ġcommunity": 3187,
    "ĠParis": 3188,
    "Ġshare": 3189,
    "Ġoccur": 3190,
    "Ġexerc": 3191,
    "ĠData": 3192,
    "Ġcomponents": 3193,
    "Ġyellow": 3194,
    "Ġdouble": 3195,
    "Ġfuture": 3196,
    "Ġcomputer": 3197,
    "pecially": 3198,
    "ĠBrazil": 3199,
    "ĠJuly": 3200,
    "ĠChicago": 3201,
    "Ġbrisket": 3202,
    "Ġanswer": 3203,
    "li": 3204,
    "gr": 3205,
    "Ġ.": 3206,
    "ony": 3207,
    "bor": 3208,
    "eal": 3209,
    "edy": 3210,
    "lled": 3211,
    "lex": 3212,
    "ĠTV": 3213,
    "'ve": 3214,
    "ĠHis": 3215,
    "ĠCol": 3216,
    "iol": 3217,
    "cil": 3218,
    "ĠMad": 3219,
    "ĠBel": 3220,
    "ung": 3221,
    "Ġtend": 3222,
    "ĠEm": 3223,
    "ĠMus": 3224,
    "ĠBill": 3225,
    "ĠKn": 3226,
    "ĠSte": 3227,
    "ource": 3228,
    "aint": 3229,
    "Ġmeans": 3230,
    "Ġbeans": 3231,
    "Ġ194": 3232,
    "Ġener": 3233,
    "Ġarg": 3234,
    "Ġmount": 3235,
    "Ġbuy": 3236,
    "Ġoffers": 3237,
    "Ġreduce": 3238,
    "Ġchick": 3239,
    "Ġfoot": 3240,
    "Ġcamp": 3241,
    "Ġserved": 3242,
    "Ġground": 3243,
    "ression": 3244,
    "ached": 3245,
    "Ġneeds": 3246,
    "Ġsix": 3247,
    "Ġliver": 3248,
    "ĠHouse": 3249,
    "Ġlonger": 3250,
    "ĠMany": 3251,
    "Ġlower": 3252,
    "Ġgeneral": 3253,
    "ĠSpan": 3254,
    "Ġtax": 3255,
    "ibility": 3256,
    "Ġeasily": 3257,
    "Ġdistance": 3258,
    "iety": 3259,
    "Ġcheese": 3260,
    "Ġnumbers": 3261,
    "portun": 3262,
    "Ġengine": 3263,
    "ĠRiver": 3264,
    "field": 3265,
    "Ġliter": 3266,
    "Ġcontrib": 3267,
    "Ġcompetition": 3268,
    "Ġcauses": 3269,
    "ĠFinancial": 3270,
    "Ġquality": 3271,
    "Ġinternational": 3272,
    "Ġalthough": 3273,
    "ĠEarth": 3274,
    "Ġtools": 3275,
    "Ġshape": 3276,
    "Ġdescrib": 3277,
    "Ġphysical": 3278,
    "reme": 3279,
    "Ġdragon": 3280,
    "ĠAPIs": 3281,
    "Ġmanufactur": 3282,
    "Ġprotein": 3283,
    "Ġfreedom": 3284,
    "Ġenvironment": 3285,
    "ĠOctober": 3286,
    "Ġtrillion": 3287,
    "Ġequipment": 3288,
    "Ġtogether": 3289,
    "Ġsignificant": 3290,
    "Ġespecially": 3291,
    "Ġopportun": 3292,
    "ho": 3293,
    "It": 3294,
    "St": 3295,
    "11": 3296,
    "18": 3297,
    "OS": 3298,
    "ino": 3299,
    "pis": 3300,
    "Ġcy": 3301,
    "Ġcal": 3302,
    "ald": 3303,
    "itt": 3304,
    "yes": 3305,
    "arl": 3306,
    "Ġmar": 3307,
    "Ġdin": 3308,
    "hic": 3309,
    "ĠAss": 3310,
    "ster": 3311,
    "nder": 3312,
    "ado": 3313,
    "ĠBy": 3314,
    "ĠWith": 3315,
    "Ġbag": 3316,
    "ĠDav": 3317,
    "Ġline": 3318,
    "Ġcann": 3319,
    "ĠRep": 3320,
    "Ġtall": 3321,
    "Ġwear": 3322,
    "aries": 3323,
    "Ġvers": 3324,
    "light": 3325,
    "Ġcame": 3326,
    "ĠSoc": 3327,
    "ocol": 3328,
    "Ġdeep": 3329,
    "Ġbike": 3330,
    "Ġalp": 3331,
    "Ġcast": 3332,
    "fort": 3333,
    "ĠJan": 3334,
    "Ġcard": 3335,
    "ege": 3336,
    "time": 3337,
    "Ġrank": 3338,
    "Ġdish": 3339,
    "Ġimag": 3340,
    "ĠTex": 3341,
    "ĠVis": 3342,
    "Ġsomeone": 3343,
    "ĠIntern": 3344,
    "Ġcontain": 3345,
    "Ġparts": 3346,
    "Ġparty": 3347,
    "ilities": 3348,
    "ground": 3349,
    "Ġitself": 3350,
    "Ġtarg": 3351,
    "Ġformed": 3352,
    "Ġworks": 3353,
    "ivision": 3354,
    "ĠRec": 3355,
    "enced": 3356,
    "Ġactually": 3357,
    "Ġextract": 3358,
    "Ġidea": 3359,
    "Ġblind": 3360,
    "Ġcup": 3361,
    "Ġpurch": 3362,
    "Ġconsum": 3363,
    "Ġowner": 3364,
    "Ġbreak": 3365,
    "Ġwrite": 3366,
    "Ġproducts": 3367,
    "ception": 3368,
    "Ġfield": 3369,
    "Ġmovement": 3370,
    "airs": 3371,
    "Ġoptions": 3372,
    "Ġeffective": 3373,
    "Ġorganization": 3374,
    "Ġdeliver": 3375,
    "mpire": 3376,
    "rogen": 3377,
    "Ġchoose": 3378,
    "Ġtitle": 3379,
    "ĠPeople": 3380,
    "Ġfruit": 3381,
    "ĠGermany": 3382,
    "Ġplaces": 3383,
    "ĠAfrican": 3384,
    "ĠAustralia": 3385,
    "senal": 3386,
    "izza": 3387,
    "Ġflowers": 3388,
    "Ġminutes": 3389,
    "Ġjacket": 3390,
    "Ġconditions": 3391,
    "Ġvideo": 3392,
    "Ġensure": 3393,
    "Ġbicycle": 3394,
    "ĠPremier": 3395,
    "ealand": 3396,
    "Ġenergy": 3397,
    "ĠSpanish": 3398,
    "ĠZealand": 3399,
    "dy": 3400,
    "lt": 3401,
    "Ġz": 3402,
    "GA": 3403,
    "'d": 3404,
    "vin": 3405,
    "che": 3406,
    "ken": 3407,
    "ali": 3408,
    "ess": 3409,
    "iting": 3410,
    "Ġpan": 3411,
    "ised": 3412,
    "Ġbed": 3413,
    "lla": 3414,
    "ole": 3415,
    "omen": 3416,
    "gers": 3417,
    "Ġeg": 3418,
    "vez": 3419,
    "Ġnation": 3420,
    "itation": 3421,
    "chan": 3422,
    "ota": 3423,
    "Ġfly": 3424,
    "urt": 3425,
    "aid": 3426,
    "Ġcut": 3427,
    "arter": 3428,
    "ĠSum": 3429,
    "over": 3430,
    "ĠDes": 3431,
    "Ġask": 3432,
    "utive": 3433,
    "Ġdate": 3434,
    "Ġru": 3435,
    "Ġheart": 3436,
    "ĠLight": 3437,
    "ille": 3438,
    "Ġ27": 3439,
    "abor": 3440,
    "Ġrad": 3441,
    "ĠInt": 3442,
    "ĠDog": 3443,
    "Ġtast": 3444,
    "ĠTour": 3445,
    "Ġtire": 3446,
    "hold": 3447,
    "off": 3448,
    "urther": 3449,
    "ĠMary": 3450,
    "Ġadop": 3451,
    "ancun": 3452,
    "Ġbutter": 3453,
    "Ġnational": 3454,
    "sidents": 3455,
    "ruction": 3456,
    "ĠAmericans": 3457,
    "Ġago": 3458,
    "Ġmoved": 3459,
    "Ġflu": 3460,
    "aska": 3461,
    "Ġski": 3462,
    "Ġtests": 3463,
    "atures": 3464,
    "Ġsmaller": 3465,
    "Ġscience": 3466,
    "ywood": 3467,
    "ificial": 3468,
    "Ġinstit": 3469,
    "Ġstock": 3470,
    "Ġwinter": 3471,
    "istics": 3472,
    "Ġlongest": 3473,
    "Ġthroughout": 3474,
    "Ġslow": 3475,
    "ront": 3476,
    "Ġdirectly": 3477,
    "Ġplanet": 3478,
    "Ġwheel": 3479,
    "Ġlarger": 3480,
    "Ġfounded": 3481,
    "Ġmilk": 3482,
    "Ġmention": 3483,
    "hester": 3484,
    "ength": 3485,
    "osaur": 3486,
    "ĠOpen": 3487,
    "Ġinteresting": 3488,
    "Ġschools": 3489,
    "Ġcontinu": 3490,
    "Ġdream": 3491,
    "iPhone": 3492,
    "Ġcode": 3493,
    "ucks": 3494,
    "obert": 3495,
    "Ġfuel": 3496,
    "pril": 3497,
    "osoph": 3498,
    "imately": 3499,
    "Ġclimb": 3500,
    "Ġcateg": 3501,
    "orthern": 3502,
    "ĠJune": 3503,
    "Ġproblem": 3504,
    "Ġswimming": 3505,
    "Ġmeasure": 3506,
    "ĠGolden": 3507,
    "Ġquickly": 3508,
    "ĠPrize": 3509,
    "Ġplastic": 3510,
    "grees": 3511,
    "Ġhomes": 3512,
    "ĠKingdom": 3513,
    "Ġavoid": 3514,
    "Follette": 3515,
    "Ġtransportation": 3516,
    "ĠMasters": 3517,
    "Ġgarden": 3518,
    "asketball": 3519,
    "Ġkitchen": 3520,
    "Ġsnowboard": 3521,
    "Ġpupp": 3522,
    "Ġpurpose": 3523,
    "ĠTexas": 3524,
    "ĠArsenal": 3525,
    "ta": 3526,
    "go": 3527,
    "Ch": 3528,
    "sp": 3529,
    "yp": 3530,
    "Ġ#": 3531,
    "ret": 3532,
    "orr": 3533,
    "ising": 3534,
    "Ġhu": 3535,
    "Ġhon": 3536,
    "ica": 3537,
    "ĠAp": 3538,
    "ĠSn": 3539,
    "Ġrev": 3540,
    "ouch": 3541,
    "gra": 3542,
    "ĠGh": 3543,
    "ĠGra": 3544,
    "Ġfig": 3545,
    "Ġkid": 3546,
    "imed": 3547,
    "lim": 3548,
    "ĠAut": 3549,
    "utch": 3550,
    "ĠBay": 3551,
    "eles": 3552,
    "umb": 3553,
    "pri": 3554,
    "unt": 3555,
    "Ġasp": 3556,
    "iate": 3557,
    "Ġstop": 3558,
    "Ġrout": 3559,
    "Ġfight": 3560,
    "ocur": 3561,
    "ĠRich": 3562,
    "Ġrac": 3563,
    "duct": 3564,
    "ĠThom": 3565,
    "Ġrates": 3566,
    "acy": 3567,
    "akers": 3568,
    "urance": 3569,
    "atory": 3570,
    "Ġbank": 3571,
    "uary": 3572,
    "ube": 3573,
    "ĠEach": 3574,
    "Ġcover": 3575,
    "ĠCount": 3576,
    "Ġhelps": 3577,
    "Ġincludes": 3578,
    "Ġjob": 3579,
    "level": 3580,
    "ĠWhite": 3581,
    "ords": 3582,
    "Ġsau": 3583,
    "ibr": 3584,
    "Ġdesk": 3585,
    "Ġbass": 3586,
    "Ġisland": 3587,
    "ĠMaj": 3588,
    "Ġgreatest": 3589,
    "Ġworking": 3590,
    "ĠAward": 3591,
    "Ġforward": 3592,
    "Ġachieve": 3593,
    "ĠProv": 3594,
    "Ġpopul": 3595,
    "ĠNove": 3596,
    "Ġseasons": 3597,
    "Ġneeded": 3598,
    "most": 3599,
    "ĠAlso": 3600,
    "house": 3601,
    "Ġrepla": 3602,
    "Ġcenter": 3603,
    "ressive": 3604,
    "Ġfoods": 3605,
    "Ġgrass": 3606,
    "ĠIsland": 3607,
    "Ġbelong": 3608,
    "ĠSchool": 3609,
    "Ġconsist": 3610,
    "Ġrecords": 3611,
    "Ġdrive": 3612,
    "Ġattention": 3613,
    "Ġ1980": 3614,
    "Ġclubs": 3615,
    "Ġinvestment": 3616,
    "Ġpayments": 3617,
    "Ġfunction": 3618,
    "Ġbuilding": 3619,
    "Ġcharacters": 3620,
    "Ġdepends": 3621,
    "Ġbiking": 3622,
    "Ġcaused": 3623,
    "Ġkids": 3624,
    "Ġaudio": 3625,
    "Ġstreng": 3626,
    "ĠLamb": 3627,
    "Ġpopulation": 3628,
    "Ġintrodu": 3629,
    "ĠSuper": 3630,
    "Ġself": 3631,
    "Ġmoment": 3632,
    "Ġvacation": 3633,
    "ĠTaylor": 3634,
    "ederal": 3635,
    "Ġracket": 3636,
    "Ġbottom": 3637,
    "Ġestablished": 3638,
    "itzerland": 3639,
    "Ġprivate": 3640,
    "Ġbelieve": 3641,
    "Ġeyes": 3642,
    "Ġvehic": 3643,
    "Ġpizza": 3644,
    "Ġeggs": 3645,
    "Ġmechan": 3646,
    "ville": 3647,
    "ĠCancun": 3648,
    "ollywood": 3649,
    "Ġfront": 3650,
    "Ġphilosoph": 3651,
    "Ġdegrees": 3652,
    "ĠLaFollette": 3653,
    "ryptocur": 3654,
    "ĠNovember": 3655,
    "As": 3656,
    "bu": 3657,
    "Th": 3658,
    "vo": 3659,
    "21": 3660,
    "ih": 3661,
    "DP": 3662,
    "ban": 3663,
    "min": 3664,
    "inn": 3665,
    "iny": 3666,
    "atin": 3667,
    "anta": 3668,
    "Ġant": 3669,
    "Ġpat": 3670,
    "Ġpy": 3671,
    "Ġanc": 3672,
    "Ġanal": 3673,
    "ites": 3674,
    "eding": 3675,
    "lling": 3676,
    "asc": 3677,
    "ĠII": 3678,
    "ĠSing": 3679,
    "Ġpers": 3680,
    "Ġpet": 3681,
    "vey": 3682,
    "ros": 3683,
    "rox": 3684,
    "Ġgar": 3685,
    "Ġbra": 3686,
    "ura": 3687,
    "ĠHam": 3688,
    "Ġbur": 3689,
    "igan": 3690,
    "ida": 3691,
    "ĠTim": 3692,
    "iles": 3693,
    "aging": 3694,
    "Ġcir": 3695,
    "irt": 3696,
    "ĠDC": 3697,
    "ĠDon": 3698,
    "ĠDis": 3699,
    "ried": 3700,
    "eep": 3701,
    "ateur": 3702,
    "izes": 3703,
    "ands": 3704,
    "ĠWood": 3705,
    "hael": 3706,
    "Ġrepe": 3707,
    "estiv": 3708,
    "ĠUse": 3709,
    "ocr": 3710,
    "ĠGreat": 3711,
    "verse": 3712,
    "idge": 3713,
    "Ġdry": 3714,
    "Ġworth": 3715,
    "aker": 3716,
    "ĠMark": 3717,
    "Ġteach": 3718,
    "action": 3719,
    "ĠVal": 3720,
    "Ġnever": 3721,
    "reek": 3722,
    "pite": 3723,
    "ients": 3724,
    "Ġeveryone": 3725,
    "augh": 3726,
    "Ġrope": 3727,
    "Ġfollow": 3728,
    "Ġscient": 3729,
    "Ġ2017": 3730,
    "Ġdivers": 3731,
    "Ġrights": 3732,
    "Ġcorn": 3733,
    "Ġeffort": 3734,
    "Ġwins": 3735,
    "Ġexperi": 3736,
    "itute": 3737,
    "ification": 3738,
    "Ġhost": 3739,
    "vision": 3740,
    "ĠMarch": 3741,
    "Ġrather": 3742,
    "Ġdirection": 3743,
    "Ġasset": 3744,
    "Ġhealthy": 3745,
    "Ġability": 3746,
    "ĠGreen": 3747,
    "ĠKenn": 3748,
    "Ġapple": 3749,
    "Ġapart": 3750,
    "Ġbrew": 3751,
    "Ġinstruments": 3752,
    "ĠAcc": 3753,
    "Ġ1990": 3754,
    "Ġestim": 3755,
    "Ġprior": 3756,
    "Ġmatch": 3757,
    "Ġissu": 3758,
    "Ġannot": 3759,
    "ĠAlthough": 3760,
    "Ġtitles": 3761,
    "Ġfruits": 3762,
    "Ġdescribe": 3763,
    "Ġcloud": 3764,
    "cember": 3765,
    "outhern": 3766,
    "Ġfiction": 3767,
    "Ġfollowed": 3768,
    "Ġsym": 3769,
    "Ġparticular": 3770,
    "Ġpaper": 3771,
    "Ġhistorical": 3772,
    "Ġprogramming": 3773,
    "Ġhalf": 3774,
    "Ġaverage": 3775,
    "Ġwestern": 3776,
    "Ġsweet": 3777,
    "Ġpickleball": 3778,
    "Ġunique": 3779,
    "Ġwonder": 3780,
    "Ġfresh": 3781,
    "Ġsource": 3782,
    "pisode": 3783,
    "ĠEmpire": 3784,
    "ĠPGA": 3785,
    "ĠRobert": 3786,
    "ĠApril": 3787,
    "Ġracqu": 3788,
    "ĠSwitzerland": 3789,
    "ichigan": 3790,
    "oo": 3791,
    "15": 3792,
    "30": 3793,
    "ox": 3794,
    "Vs": 3795,
    "ux": 3796,
    "oin": 3797,
    "lin": 3798,
    "oor": 3799,
    "oring": 3800,
    "Ġing": 3801,
    "iant": 3802,
    "Ġinj": 3803,
    "owl": 3804,
    "Ġye": 3805,
    "roc": 3806,
    "isation": 3807,
    "cell": 3808,
    "otes": 3809,
    "Ġking": 3810,
    "urch": 3811,
    "Ġur": 3812,
    "bol": 3813,
    "olm": 3814,
    "Ġstra": 3815,
    "add": 3816,
    "road": 3817,
    "ades": 3818,
    "ĠMod": 3819,
    "ĠMc": 3820,
    "ĠBol": 3821,
    "gest": 3822,
    "ula": 3823,
    "vert": 3824,
    "ilver": 3825,
    "ĠDen": 3826,
    "Ġgun": 3827,
    "ander": 3828,
    "alls": 3829,
    "Ġdyn": 3830,
    "Ġheat": 3831,
    "ius": 3832,
    "ilies": 3833,
    "Ġsequ": 3834,
    "Ġfill": 3835,
    "ĠUs": 3836,
    "Ġchart": 3837,
    "Ġbreat": 3838,
    "ĠOut": 3839,
    "ĠMoon": 3840,
    "orto": 3841,
    "nown": 3842,
    "ĠFire": 3843,
    "Ġallow": 3844,
    "Ġsold": 3845,
    "Ġpress": 3846,
    "Ġtook": 3847,
    "ĠMac": 3848,
    "Ġdance": 3849,
    "rong": 3850,
    "epper": 3851,
    "Ġcake": 3852,
    "ĠOther": 3853,
    "wind": 3854,
    "Ġsens": 3855,
    "Ġcreating": 3856,
    "fish": 3857,
    "Ġpian": 3858,
    "Ġneg": 3859,
    "Ġnecess": 3860,
    "Ġbord": 3861,
    "ford": 3862,
    "Ġlocation": 3863,
    "Ġglass": 3864,
    "ought": 3865,
    "Ġbrown": 3866,
    "Ġclim": 3867,
    "ĠComm": 3868,
    "Ġflight": 3869,
    "soft": 3870,
    "Ġactive": 3871,
    "Ġwhereas": 3872,
    "Ġmuse": 3873,
    "Ġfinance": 3874,
    "Ġfix": 3875,
    "ĠBell": 3876,
    "Ġgrowing": 3877,
    "Ġwalking": 3878,
    "ecause": 3879,
    "Ġcomplete": 3880,
    "Ġrequires": 3881,
    "Ġtown": 3882,
    "life": 3883,
    "Ġvisual": 3884,
    "Ġcomma": 3885,
    "Ġonline": 3886,
    "Ġtransfer": 3887,
    "attle": 3888,
    "ĠMiss": 3889,
    "Ġdeath": 3890,
    "Ġgeneration": 3891,
    "Ġpull": 3892,
    "ronic": 3893,
    "Ġplanets": 3894,
    "Ġsouth": 3895,
    "book": 3896,
    "Ġdeveloped": 3897,
    "Ġconcer": 3898,
    "Ġpowerful": 3899,
    "Ġeasier": 3900,
    "ĠSince": 3901,
    "Ġartic": 3902,
    "Ġlots": 3903,
    "Ġaccept": 3904,
    "Ġwarm": 3905,
    "Ġcases": 3906,
    "ounter": 3907,
    "Ġapproach": 3908,
    "Ġinflation": 3909,
    "Ġoriginal": 3910,
    "Ġnearby": 3911,
    "Ġappear": 3912,
    "lymp": 3913,
    "Ġmusicians": 3914,
    "Ġscored": 3915,
    "Ġsafety": 3916,
    "Ġsales": 3917,
    "Ġrecently": 3918,
    "Ġmanagement": 3919,
    "Ġwatch": 3920,
    "Ġblock": 3921,
    "Ġbeginning": 3922,
    "estyle": 3923,
    "ĠGerman": 3924,
    "Ġvote": 3925,
    "Ġawarded": 3926,
    "Ġseeds": 3927,
    "Ġprotect": 3928,
    "Ġtraditional": 3929,
    "iddle": 3930,
    "Ġmachine": 3931,
    "ĠGrand": 3932,
    "Ġinfluence": 3933,
    "Ġmeaning": 3934,
    "Ġrecommend": 3935,
    "Ġsugar": 3936,
    "Ġcricket": 3937,
    "Ġexercise": 3938,
    "Ġextreme": 3939,
    "ocolate": 3940,
    "ĠAlaska": 3941,
    "Ġartificial": 3942,
    "anchester": 3943,
    "Ġlength": 3944,
    "Ġhuge": 3945,
    "ĠGhana": 3946,
    "ĠAngeles": 3947,
    "Ġappropri": 3948,
    "Ġsauce": 3949,
    "ryptocurrency": 3950,
    "Ġfestiv": 3951,
    "Ġtelevision": 3952,
    "ĠDecember": 3953,
    "ĠMichigan": 3954,
    "Ġyeast": 3955,
    "Ġchocolate": 3956,
    "99": 3957,
    "An": 3958,
    "86": 3959,
    "Ġ+": 3960,
    "isa": 3961,
    "ona": 3962,
    "ita": 3963,
    "Ġcit": 3964,
    "bow": 3965,
    "ĠAg": 3966,
    "net": 3967,
    "ĠSch": 3968,
    "ĠCr": 3969,
    "ĠCor": 3970,
    "rab": 3971,
    "ira": 3972,
    "olit": 3973,
    "ola": 3974,
    "iment": 3975,
    "oding": 3976,
    "Ġ($": 3977,
    "Ġforce": 3978,
    "head": 3979,
    "ĠMer": 3980,
    "uted": 3981,
    "idel": 3982,
    "ĠMag": 3983,
    "que": 3984,
    "ĠDist": 3985,
    "riz": 3986,
    "ĠFer": 3987,
    "Ġwine": 3988,
    "ĠRo": 3989,
    "ĠDep": 3990,
    "anding": 3991,
    "hood": 3992,
    "hab": 3993,
    "lus": 3994,
    "uries": 3995,
    "Ġ22": 3996,
    "idence": 3997,
    "Ġtreat": 3998,
    "ĠOver": 3999,
    "mentation": 4000,
    "Ġbud": 4001,
    "ĠCast": 4002,
    "wide": 4003,
    "vice": 4004,
    "mos": 4005,
    "osing": 4006,
    "Ġ192": 4007,
    "ook": 4008,
    "ĠBase": 4009,
    "Ġfac": 4010,
    "empt": 4011,
    "ĠCong": 4012,
    "Ġtheory": 4013,
    "ĠStar": 4014,
    "Ġdark": 4015,
    "Ġgone": 4016,
    "Ġcommer": 4017,
    "ĠInter": 4018,
    "Ġadj": 4019,
    "rang": 4020,
    "Ġneigh": 4021,
    "cles": 4022,
    "Ġtru": 4023,
    "phere": 4024,
    "Ġloan": 4025,
    "Ġdise": 4026,
    "Ġsaw": 4027,
    "ĠHaw": 4028,
    "Ġboard": 4029,
    "Ġoverall": 4030,
    "Ġshows": 4031,
    "onders": 4032,
    "Ġyarn": 4033,
    "Ġ‘": 4034,
    "Ġhighly": 4035,
    "Ġmoving": 4036,
    "acific": 4037,
    "Ġprocesses": 4038,
    "Ġprocessing": 4039,
    "Ġ50": 4040,
    "fell": 4041,
    "ĠArt": 4042,
    "ĠDec": 4043,
    "Ġregul": 4044,
    "Ġregular": 4045,
    "iable": 4046,
    "Ġextra": 4047,
    "Ġpict": 4048,
    "Ġ180": 4049,
    "ĠIndiana": 4050,
    "Ġorange": 4051,
    "ohol": 4052,
    "ĠAtt": 4053,
    "Ġstress": 4054,
    "Ġpath": 4055,
    "Ġdecide": 4056,
    "Ġ2018": 4057,
    "flix": 4058,
    "mouth": 4059,
    "Ġrunner": 4060,
    "Ġwinner": 4061,
    "Ġpartner": 4062,
    "Ġowners": 4063,
    "Ġsoccer": 4064,
    "ĠIslam": 4065,
    "Ġbreed": 4066,
    "plif": 4067,
    "Ġairpl": 4068,
    "ĠMarvel": 4069,
    "Ġmajority": 4070,
    "ĠGolf": 4071,
    "Ġdriving": 4072,
    "Ġwriting": 4073,
    "ĠUSA": 4074,
    "ĠReg": 4075,
    "Ġlines": 4076,
    "Ġnorth": 4077,
    "Ġgives": 4078,
    "Ġenter": 4079,
    "Ġentire": 4080,
    "Ġswing": 4081,
    "Ġsolid": 4082,
    "ĠSea": 4083,
    "Ġcontinue": 4084,
    "gypt": 4085,
    "Ġoldest": 4086,
    "Ġservice": 4087,
    "ĠClub": 4088,
    "Ġelectric": 4089,
    "ĠSwift": 4090,
    "Ġhappen": 4091,
    "ĠCentres": 4092,
    "Ġpotential": 4093,
    "Ġsources": 4094,
    "ĠChinese": 4095,
    "Ġhyd": 4096,
    "Ġstructure": 4097,
    "Ġdrop": 4098,
    "Ġpitch": 4099,
    "Ġleaves": 4100,
    "Ġsongs": 4101,
    "Ġmethods": 4102,
    "Ġobjects": 4103,
    "ĠBook": 4104,
    "ĠChá": 4105,
    "porate": 4106,
    "Ġsummary": 4107,
    "Ġprevent": 4108,
    "Ġviews": 4109,
    "Ġseparated": 4110,
    "ĠSeptember": 4111,
    "September": 4112,
    "Ġlimited": 4113,
    "ĠPortug": 4114,
    "Ġvegetables": 4115,
    "ĠVirginia": 4116,
    "ĠAnimal": 4117,
    "Ġchalleng": 4118,
    "craft": 4119,
    "force": 4120,
    "Ġreached": 4121,
    "Ġopportunity": 4122,
    "ĠVisit": 4123,
    "itrogen": 4124,
    "Ġbroken": 4125,
    "Ġclimbing": 4126,
    "Ġpuppy": 4127,
    "ĠApple": 4128,
    "ĠRichard": 4129,
    "ĠJanuary": 4130,
    "Ġtiny": 4131,
    "ĠLatin": 4132,
    "Ġpyram": 4133,
    "Ġamateur": 4134,
    "ĠKennedy": 4135,
    "ĠAccording": 4136,
    "Ġbiggest": 4137,
    "Ġbreath": 4138,
    "Ġpepper": 4139,
    "Ġappropriate": 4140,
    "ĠNetflix": 4141,
    "Ġamplif": 4142,
    "ĠEgypt": 4143,
    "ĠChávez": 4144,
    "He": 4145,
    "sy": 4146,
    "75": 4147,
    "79": 4148,
    "ij": 4149,
    "ini": 4150,
    "het": 4151,
    "uis": 4152,
    "rel": 4153,
    "bre": 4154,
    "For": 4155,
    "oug": 4156,
    "kal": 4157,
    "fing": 4158,
    "Ġfat": 4159,
    "anes": 4160,
    "Ġox": 4161,
    "Ġhar": 4162,
    "icon": 4163,
    "ional": 4164,
    "omin": 4165,
    "oma": 4166,
    "ters": 4167,
    "eting": 4168,
    "enty": 4169,
    "Ġeat": 4170,
    "amas": 4171,
    "ayer": 4172,
    "rag": 4173,
    "Ġcra": 4174,
    "Ġgol": 4175,
    "ident": 4176,
    "iding": 4177,
    "Ġthing": 4178,
    "Ġstar": 4179,
    "iled": 4180,
    "Ġuser": 4181,
    "ĠBet": 4182,
    "Ġsem": 4183,
    "adel": 4184,
    "orter": 4185,
    "iring": 4186,
    "ĠAir": 4187,
    "ĠSir": 4188,
    "vest": 4189,
    "ĠTheir": 4190,
    "ĠFl": 4191,
    "eria": 4192,
    "ĠRam": 4193,
    "ending": 4194,
    "anda": 4195,
    "Ġcop": 4196,
    "arty": 4197,
    "Ġmob": 4198,
    "Ġmoon": 4199,
    "ype": 4200,
    "ĠUp": 4201,
    "ĠUt": 4202,
    "ĠOl": 4203,
    "Ġalc": 4204,
    "oga": 4205,
    "ipl": 4206,
    "ĠEast": 4207,
    "rote": 4208,
    "cos": 4209,
    "isions": 4210,
    "ections": 4211,
    "Ġlikely": 4212,
    "ears": 4213,
    "ĠItal": 4214,
    "ersey": 4215,
    "Ġstarting": 4216,
    "ollow": 4217,
    "Ġpoll": 4218,
    "Ġperf": 4219,
    "Ġcore": 4220,
    "aken": 4221,
    "Ġspent": 4222,
    "sue": 4223,
    "ĠCub": 4224,
    "Ġbeach": 4225,
    "Ġ31": 4226,
    "Ġopened": 4227,
    "actions": 4228,
    "Ġlisted": 4229,
    "pping": 4230,
    "Ġincluded": 4231,
    "ĠCru": 4232,
    "ruary": 4233,
    "igned": 4234,
    "Ġallowing": 4235,
    "atively": 4236,
    "phia": 4237,
    "ampion": 4238,
    "Ġruns": 4239,
    "Ġgreater": 4240,
    "ĠJets": 4241,
    "Ġprime": 4242,
    "Ġ80": 4243,
    "Ġwanted": 4244,
    "Ġeffect": 4245,
    "Ġmusical": 4246,
    "Ġexpect": 4247,
    "ĠRock": 4248,
    "Ġcurrently": 4249,
    "hips": 4250,
    "Ġcomplex": 4251,
    "Ġregions": 4252,
    "Ġattract": 4253,
    "arize": 4254,
    "Ġfather": 4255,
    "Ġseven": 4256,
    "enez": 4257,
    "Ġ2023": 4258,
    "Ġassets": 4259,
    "Ġblood": 4260,
    "Ġfaster": 4261,
    "Ġbath": 4262,
    "Ġelements": 4263,
    "ĠSpain": 4264,
    "Ġ2008": 4265,
    "Ġclear": 4266,
    "Ġunderstanding": 4267,
    "ĠRuss": 4268,
    "coin": 4269,
    "owling": 4270,
    "cling": 4271,
    "Ġdefin": 4272,
    "Ġdefe": 4273,
    "Ġcris": 4274,
    "rison": 4275,
    "Ġhope": 4276,
    "Ġ1960": 4277,
    "ĠVeg": 4278,
    "Ġinvestors": 4279,
    "Ġscale": 4280,
    "Ġgenom": 4281,
    "Ġstands": 4282,
    "Ġrefers": 4283,
    "reaming": 4284,
    "Ġbeauty": 4285,
    "ĠWarri": 4286,
    "Ġtowards": 4287,
    "ĠAwards": 4288,
    "itches": 4289,
    "Ġchoice": 4290,
    "There": 4291,
    "where": 4292,
    "Ġelse": 4293,
    "Ġcooking": 4294,
    "Ġsteps": 4295,
    "Ġfully": 4296,
    "Ġstructures": 4297,
    "Ġallowed": 4298,
    "Ġeventually": 4299,
    "Ġidentify": 4300,
    "ĠSuns": 4301,
    "Ġproblems": 4302,
    "Ġselect": 4303,
    "Ġrules": 4304,
    "Ġinvolved": 4305,
    "Ġsquare": 4306,
    "Ġpossible": 4307,
    "ĠFeb": 4308,
    "Ġessential": 4309,
    "quently": 4310,
    "Ġattacks": 4311,
    "Ġgirl": 4312,
    "Ġrestaurants": 4313,
    "ĠDavid": 4314,
    "Ġcannot": 4315,
    "ĠInternational": 4316,
    "abilities": 4317,
    "Ġrule": 4318,
    "Ġmentioned": 4319,
    "Ġbasketball": 4320,
    "ĠProvide": 4321,
    "ĠGDP": 4322,
    "ĠMichael": 4323,
    "redients": 4324,
    "Ġannotation": 4325,
    "alcolm": 4326,
    "Ġnecessary": 4327,
    "rosoft": 4328,
    "Ġelectronic": 4329,
    "ĠOlymp": 4330,
    "ĠManchester": 4331,
    "ĠBaseball": 4332,
    "Ġattempt": 4333,
    "Ġgolfer": 4334,
    "Ġalcohol": 4335,
    "enezuel": 4336,
    "ĠFebruary": 4337,
    "ĠVenezuel": 4338,
    "cu": 4339,
    "AI": 4340,
    "Ar": 4341,
    "oe": 4342,
    "12": 4343,
    "ES": 4344,
    "BC": 4345,
    "bt": 4346,
    " ": 4347,
    "lon": 4348,
    "rep": 4349,
    "oen": 4350,
    "ouis": 4351,
    "Ġsal": 4352,
    "anth": 4353,
    "mit": 4354,
    "Ġmi": 4355,
    "har": 4356,
    "Ġassist": 4357,
    "ned": 4358,
    "ped": 4359,
    "ĠTor": 4360,
    "ĠAc": 4361,
    "ĠSl": 4362,
    "ĠSk": 4363,
    "met": 4364,
    "eter": 4365,
    "Ġyet": 4366,
    "Ġsent": 4367,
    "iation": 4368,
    "ama": 4369,
    "Ġdam": 4370,
    "oting": 4371,
    "rap": 4372,
    "ĠHot": 4373,
    "ĠGre": 4374,
    "Ġtur": 4375,
    "ided": 4376,
    "ĠGod": 4377,
    "Ġthin": 4378,
    "Ġmap": 4379,
    "Ġsty": 4380,
    "Ġones": 4381,
    "ils": 4382,
    "ĠPal": 4383,
    "ĠPay": 4384,
    "ĠMo": 4385,
    "ĠMa": 4386,
    "ĠHem": 4387,
    "inem": 4388,
    "emon": 4389,
    "oke": 4390,
    "aul": 4391,
    "Ġhair": 4392,
    "unk": 4393,
    "ifth": 4394,
    "ively": 4395,
    "ender": 4396,
    "oper": 4397,
    "Ġhep": 4398,
    "Ġbill": 4399,
    "ipe": 4400,
    "Ġ24": 4401,
    "Ġ21": 4402,
    "Ġmac": 4403,
    "Ġlab": 4404,
    "ĠRoc": 4405,
    "Ġshop": 4406,
    "Ġshr": 4407,
    "ĠOS": 4408,
    "rast": 4409,
    "ĠLast": 4410,
    "ĠJim": 4411,
    "ĠSide": 4412,
    "Ġice": 4413,
    "ĠLos": 4414,
    "Ġgoes": 4415,
    "ĠTime": 4416,
    "ires": 4417,
    "earch": 4418,
    "enry": 4419,
    "berg": 4420,
    "Ġstore": 4421,
    "bust": 4422,
    "Ġspin": 4423,
    "ĠDark": 4424,
    "Ġemer": 4425,
    "ĠBank": 4426,
    "Ġarri": 4427,
    "ician": 4428,
    "Ġaccom": 4429,
    "attern": 4430,
    "Ġpeace": 4431,
    "ĠRob": 4432,
    "ignon": 4433,
    "Ġcontent": 4434,
    "Ġstick": 4435,
    "Ġkick": 4436,
    "weight": 4437,
    "auv": 4438,
    "Ġroles": 4439,
    "ependent": 4440,
    "Ġloss": 4441,
    "Ġemb": 4442,
    "ĠGib": 4443,
    "Ġproduce": 4444,
    "oved": 4445,
    "Ġserve": 4446,
    "Ġflag": 4447,
    "ĠDuring": 4448,
    "Ġbrie": 4449,
    "Ġserving": 4450,
    "Ġinches": 4451,
    "Ġinterv": 4452,
    "ĠUPI": 4453,
    "Ġdash": 4454,
    "Ġshade": 4455,
    "Ġgrand": 4456,
    "ĠArch": 4457,
    "igious": 4458,
    "Ġcred": 4459,
    "ictions": 4460,
    "venue": 4461,
    "Ġminim": 4462,
    "Ġ2016": 4463,
    "Ġcourt": 4464,
    "ully": 4465,
    "Ġresorts": 4466,
    "Ġtrying": 4467,
    "Ġplanning": 4468,
    "Ġclean": 4469,
    "Ġ90": 4470,
    "Ġinstruct": 4471,
    "Ġcentral": 4472,
    "vantages": 4473,
    "Ġbanks": 4474,
    "Ġdriver": 4475,
    "Ġbroad": 4476,
    "compos": 4477,
    "Ġsecre": 4478,
    "Ġtrade": 4479,
    "Ġanything": 4480,
    "Ġactivity": 4481,
    "Ġmulti": 4482,
    "Ġtaking": 4483,
    "Ġrib": 4484,
    "Ġoperating": 4485,
    "Ġoperations": 4486,
    "Ġ1970": 4487,
    "Ġspring": 4488,
    "Ġspicy": 4489,
    "Ġkeyboard": 4490,
    "ranch": 4491,
    "Ġawards": 4492,
    "obby": 4493,
    "Ġsugg": 4494,
    "Ġdistinct": 4495,
    "Ġbabies": 4496,
    "Ġbirds": 4497,
    "nov": 4498,
    "Ġgrew": 4499,
    "ĠCentral": 4500,
    "Ġesc": 4501,
    "Ġearth": 4502,
    "mium": 4503,
    "Ġdebt": 4504,
    "Ġweekend": 4505,
    "Ġmamm": 4506,
    "Ġsitu": 4507,
    "Ġreprodu": 4508,
    "urger": 4509,
    "Ġdomin": 4510,
    "Ġletter": 4511,
    "Ġident": 4512,
    "Ġparticip": 4513,
    "herlands": 4514,
    "ĠAfrica": 4515,
    "Ġframe": 4516,
    "Ġcommunication": 4517,
    "Ġconnected": 4518,
    "Ġwoman": 4519,
    "ĠTiger": 4520,
    "ĠOcean": 4521,
    "Ġocean": 4522,
    "Ġfilled": 4523,
    "Ġreceived": 4524,
    "Ġmachines": 4525,
    "Ġaccording": 4526,
    "Ġsquash": 4527,
    "Ġexplore": 4528,
    "Ġcustomers": 4529,
    "Ġdestination": 4530,
    "ĠMartin": 4531,
    "Ġchanges": 4532,
    "Ġdanger": 4533,
    "Ġregarded": 4534,
    "Ġoppon": 4535,
    "Ġratio": 4536,
    "Ġbecoming": 4537,
    "Ġadvantages": 4538,
    "Ġspread": 4539,
    "ademic": 4540,
    "Ġintegr": 4541,
    "ĠUnder": 4542,
    "Ġversion": 4543,
    "ĠUlt": 4544,
    "vengers": 4545,
    "Ġradio": 4546,
    "Ġfeatures": 4547,
    "Ġnorthern": 4548,
    "Ġfigure": 4549,
    "Ġconduct": 4550,
    "Ġstrength": 4551,
    "ĠFederal": 4552,
    "ĠHarvey": 4553,
    "ĠInstitute": 4554,
    "Ġestimated": 4555,
    "Ġwonderful": 4556,
    "ĠChurch": 4557,
    "Ġtorto": 4558,
    "known": 4559,
    "ĠBecause": 4560,
    "ĠSeattle": 4561,
    "Ġlifestyle": 4562,
    "Ġcitiz": 4563,
    "kaline": 4564,
    "ĠPhiladel": 4565,
    "Ġmobile": 4566,
    "otype": 4567,
    "Ġwrote": 4568,
    "Ġtaken": 4569,
    "Ġchampion": 4570,
    "Ġingredients": 4571,
    "ĠMalcolm": 4572,
    "ĠMicrosoft": 4573,
    "auvignon": 4574,
    "Ġfranch": 4575,
    "ĠNetherlands": 4576,
    "ĠPhiladelphia": 4577,
    "ĠSauvignon": 4578,
    "Wh": 4579,
    "fi": 4580,
    "ba": 4581,
    "rd": 4582,
    "We": 4583,
    "82": 4584,
    "ET": 4585,
    "è": 4586,
    "\"?": 4587,
    "22": 4588,
    "CI": 4589,
    "56": 4590,
    "Ġ:": 4591,
    "eer": 4593,
    "isl": 4594,
    "ena": 4595,
    "istan": 4596,
    "Ġfa": 4597,
    "Ġmer": 4598,
    "ara": 4599,
    "ded": 4600,
    "Ġder": 4601,
    "Ġmic": 4602,
    "icing": 4603,
    "Ġisn": 4604,
    "lls": 4605,
    "'ll": 4606,
    "heas": 4607,
    "ĠIm": 4608,
    "ĠIr": 4609,
    "ĠAv": 4610,
    "iers": 4611,
    "lers": 4612,
    "reet": 4613,
    "ĠWal": 4614,
    "rest": 4615,
    "ĠTro": 4616,
    "etro": 4617,
    "Ġge": 4618,
    "aration": 4619,
    "Ġcam": 4620,
    "ĠSam": 4621,
    "ĠIce": 4622,
    "Day": 4623,
    "oted": 4624,
    "lying": 4625,
    "ĠHer": 4626,
    "ĠGar": 4627,
    "urs": 4628,
    "ĠCur": 4629,
    "Ġmig": 4630,
    "fol": 4631,
    "olk": 4632,
    "oln": 4633,
    "rid": 4634,
    "Ġmid": 4635,
    "imin": 4636,
    "Ġther": 4637,
    "ĠPat": 4638,
    "ĠMu": 4639,
    "ĠBer": 4640,
    "thi": 4641,
    "aged": 4642,
    "ume": 4643,
    "Ġrequ": 4644,
    "equ": 4645,
    "Ġver": 4646,
    "dri": 4647,
    "Ġconc": 4648,
    "cks": 4649,
    "ĠFre": 4650,
    "eline": 4651,
    "ĠRem": 4652,
    "Ġmeant": 4653,
    "Ġcand": 4654,
    "Ġsand": 4655,
    "alled": 4656,
    "Ġinha": 4657,
    "Ġhear": 4658,
    "cies": 4659,
    "Ġvs": 4660,
    "Ġeight": 4661,
    "ĠNight": 4662,
    "Ġ25": 4663,
    "Ġplot": 4664,
    "mical": 4665,
    "hent": 4666,
    "Ġeast": 4667,
    "asts": 4668,
    "ially": 4669,
    "New": 4670,
    "Ġride": 4671,
    "oses": 4672,
    "Ġphen": 4673,
    "writ": 4674,
    "—": 4675,
    "enge": 4676,
    "Ġincome": 4677,
    "Ġdates": 4678,
    "ĠIts": 4679,
    "ghan": 4680,
    "Ġ190": 4681,
    "ĠCla": 4682,
    "apore": 4683,
    "ĠJust": 4684,
    "ĠSto": 4685,
    "Ġmanage": 4686,
    "Ġstage": 4687,
    "lind": 4688,
    "Ġformer": 4689,
    "itary": 4690,
    "Ġhous": 4691,
    "erous": 4692,
    "incess": 4693,
    "orses": 4694,
    "Ġadult": 4695,
    "oba": 4696,
    "Ġquite": 4697,
    "ĠLord": 4698,
    "Ġaltern": 4699,
    "ĠWild": 4700,
    "Ġrole": 4701,
    "awn": 4702,
    "Ġlaun": 4703,
    "Ġscen": 4704,
    "ĠComp": 4705,
    "Ġamp": 4706,
    "ĠRail": 4707,
    "Ġsimp": 4708,
    "Ġflat": 4709,
    "ĠĠĊ": 4710,
    "ickets": 4711,
    "Ġprice": 4712,
    "Ġsky": 4713,
    "Ġforms": 4714,
    "Ġadvent": 4715,
    "Ġadvance": 4716,
    "olumb": 4717,
    "Ġinvent": 4718,
    "Ġamaz": 4719,
    "resp": 4720,
    "ĠBoth": 4721,
    "Ġwealth": 4722,
    "Ġdisad": 4723,
    "Ġgrown": 4724,
    "ĠArg": 4725,
    "Ġrelease": 4726,
    "iously": 4727,
    "icious": 4728,
    "Ġtypical": 4729,
    "Ġrequired": 4730,
    "orize": 4731,
    "Ġthinking": 4732,
    "Ġpopularity": 4733,
    "ottle": 4734,
    "ĠCont": 4735,
    "Ġassass": 4736,
    "ĠPower": 4737,
    "berries": 4738,
    "Ġdecl": 4739,
    "Ġ2019": 4740,
    "Ġ2014": 4741,
    "Ġ2010": 4742,
    "Ġ2013": 4743,
    "ĠAugusta": 4744,
    "Ġ2000": 4745,
    "Ġ2004": 4746,
    "rones": 4747,
    "Ġdoesn": 4748,
    "Ġgross": 4749,
    "Ġdisco": 4750,
    "Ġsett": 4751,
    "Ġrelations": 4752,
    "Ġbusinesses": 4753,
    "ĠAnother": 4754,
    "Ġresponsible": 4755,
    "Ġlegs": 4756,
    "ĠUSD": 4757,
    "Ġdiet": 4758,
    "Ġalready": 4759,
    "Ġfinished": 4760,
    "Ġsurv": 4761,
    "Ġsurround": 4762,
    "Ġperformed": 4763,
    "Ġmarketing": 4764,
    "Ġincreasing": 4765,
    "ĠSeven": 4766,
    "iament": 4767,
    "ĠCarl": 4768,
    "Ġchair": 4769,
    "Ġcondition": 4770,
    "Ġsense": 4771,
    "Ġdefense": 4772,
    "Ġoption": 4773,
    "ĠReal": 4774,
    "Ġbenefit": 4775,
    "Ġrespective": 4776,
    "Ġjoined": 4777,
    "Ġinsp": 4778,
    "Ġparking": 4779,
    "Ġleave": 4780,
    "Ġaudience": 4781,
    "Ġplease": 4782,
    "ygen": 4783,
    "Ġannual": 4784,
    "Ġgroups": 4785,
    "Ġclasses": 4786,
    "Ġwatching": 4787,
    "Ġjump": 4788,
    "Ġspending": 4789,
    "Ġcombination": 4790,
    "Ġbasic": 4791,
    "Ġreaches": 4792,
    "Ġwebs": 4793,
    "incip": 4794,
    "ĠLinc": 4795,
    "ĠIslands": 4796,
    "Ġfrance": 4797,
    "ĠSeries": 4798,
    "Ġemploy": 4799,
    "ourney": 4800,
    "Ġvegetable": 4801,
    "volution": 4802,
    "Ġfastest": 4803,
    "Ġuniverse": 4804,
    "Ġrecommended": 4805,
    "Ġmaterials": 4806,
    "Ġoutdo": 4807,
    "GPT": 4808,
    "Ġmotor": 4809,
    "Ġvalues": 4810,
    "Ġreturned": 4811,
    "ĠJackson": 4812,
    "Ġsecurity": 4813,
    "Ġbecomes": 4814,
    "Ġsurface": 4815,
    "Ġadvantage": 4816,
    "Ġfunds": 4817,
    "Ġnovels": 4818,
    "Ġapplication": 4819,
    "Ġvictory": 4820,
    "Ġviol": 4821,
    "Ġpaint": 4822,
    "Ġmanufacturers": 4823,
    "ĠRepublic": 4824,
    "Ġalpac": 4825,
    "Ġcomfort": 4826,
    "Ġcardio": 4827,
    "ĠCollege": 4828,
    "Ġpaid": 4829,
    "holders": 4830,
    "Ġplayoff": 4831,
    "Ġfurther": 4832,
    "Ġadopted": 4833,
    "Ġdinosaur": 4834,
    "ĠDutch": 4835,
    "Ġaspects": 4836,
    "ĠThomas": 4837,
    "Ġinsurance": 4838,
    "Ġtube": 4839,
    "Ġlibr": 4840,
    "Ġalmost": 4841,
    "Ġintroduced": 4842,
    "Ġfeeding": 4843,
    "approx": 4844,
    "Ġvirt": 4845,
    "ĠSouthern": 4846,
    "cellent": 4847,
    "Ġdecades": 4848,
    "Ġfestival": 4849,
    "Ġrainbow": 4850,
    "ĠArab": 4851,
    "idelity": 4852,
    "rizona": 4853,
    "Ġbudget": 4854,
    "ĠService": 4855,
    "Ġatmos": 4856,
    "Ġcommercial": 4857,
    "Ġneighbor": 4858,
    "ĠHawai": 4859,
    "ĠWonders": 4860,
    "Ġpicture": 4861,
    "Ġcorporate": 4862,
    "sych": 4863,
    "ĠParty": 4864,
    "Ġdecisions": 4865,
    "ĠJersey": 4866,
    "ĠWarriors": 4867,
    "ĠVenezuela": 4868,
    "ĠLouis": 4869,
    "Ġstyles": 4870,
    "Ġpattern": 4871,
    "Ġbrief": 4872,
    "composite": 4873,
    "Ġacademic": 4874,
    "Ġalkaline": 4875,
    "Ġfranchise": 4876,
    "ĠMadrid": 4877,
    "Ġinhabit": 4878,
    "Ġnumerous": 4879,
    "ĠPrincess": 4880,
    "ĠThrones": 4881,
    "liament": 4882,
    "Ġoxygen": 4883,
    "Ġprincip": 4884,
    "ĠLincoln": 4885,
    "Ġpsych": 4886,
    "da": 4887,
    "wi": 4888,
    "ga": 4889,
    "ws": 4890,
    "73": 4891,
    "QL": 4892,
    "ef": 4893,
    "Al": 4894,
    "74": 4895,
    "43": 4896,
    "76": 4897,
    "NA": 4898,
    "Ġ?": 4899,
    "VI": 4900,
    "CA": 4901,
    "Ġx": 4902,
    "ĊĠ": 4903,
    "JJ": 4904,
    "í": 4905,
    "·": 4906,
    "OC": 4907,
    "HL": 4908,
    "yan": 4909,
    "sin": 4910,
    "mat": 4911,
    "Ġwa": 4912,
    "Cal": 4913,
    "lant": 4914,
    "Ġfan": 4915,
    "Ġfant": 4916,
    "ses": 4917,
    "Ġmal": 4918,
    "arant": 4919,
    "serv": 4920,
    "edal": 4921,
    "Ġhy": 4922,
    "Ġtom": 4923,
    "tion": 4924,
    "rell": 4925,
    "lec": 4926,
    "oms": 4927,
    "ĠTen": 4928,
    "pers": 4929,
    "inet": 4930,
    "Ġwent": 4931,
    "Ġfro": 4932,
    "Ġgl": 4933,
    "ham": 4934,
    "ray": 4935,
    "rig": 4936,
    "oli": 4937,
    "olid": 4938,
    "roid": 4939,
    "And": 4940,
    "aps": 4941,
    "Ġstro": 4942,
    "Ġpil": 4943,
    "ssil": 4944,
    "ĠPur": 4945,
    "ading": 4946,
    "ĠCad": 4947,
    "ĠLet": 4948,
    "ĠLit": 4949,
    "ĠLay": 4950,
    "ĠMat": 4951,
    "Ġsav": 4952,
    "ava": 4953,
    "ĠBul": 4954,
    "ĠThen": 4955,
    "Ġprob": 4956,
    "ĠDem": 4957,
    "Ġgri": 4958,
    "rix": 4959,
    "ĠNat": 4960,
    "unch": 4961,
    "Ġtun": 4962,
    "unic": 4963,
    "iff": 4964,
    "ĠEnd": 4965,
    "ĠSand": 4966,
    "ĠLand": 4967,
    "Ġhall": 4968,
    "Ġsyn": 4969,
    "opia": 4970,
    "Ġweb": 4971,
    "Ġmart": 4972,
    "Ġseem": 4973,
    "Ġvan": 4974,
    "ightly": 4975,
    "Ġwash": 4976,
    "Ġ26": 4977,
    "ĠBab": 4978,
    "izab": 4979,
    "Ġshap": 4980,
    "Ġdead": 4981,
    "Ġrich": 4982,
    "ĠOur": 4983,
    "ĠOil": 4984,
    "Ġrap": 4985,
    "Ġrent": 4986,
    "ĠAud": 4987,
    "ĠLew": 4988,
    "ĠJr": 4989,
    "Ġsust": 4990,
    "Ġpain": 4991,
    "Ġwire": 4992,
    "Ġwhole": 4993,
    "Ġcla": 4994,
    "oken": 4995,
    "Ġjud": 4996,
    "more": 4997,
    "aced": 4998,
    "Ġchance": 4999
}